▁. 1569141
▁, 633108
s 363283
▁? 312137
' 288571
▁you 235656
▁the 217100
▁! 200350
▁i 197261
▁to 153189
▁yang 146815
▁saya 146506
▁a 135875
t 132906
▁it 103948
▁and 101410
▁dan 97830
▁di 92924
▁of 84919
▁" 84126
▁aku 79745
▁that 78710
▁is 76703
▁in 75329
▁tidak 69496
▁dia 69351
▁me 68646
▁awak 68425
nya 66127
▁kamu 65032
▁we 64218
▁akan 63453
m 62990
▁ini 62649
▁itu 59245
▁mereka 59232
▁kau 57210
d 56562
▁tak 56529
an 55861
ed 55301
re 54459
▁this 52708
▁what 52616
▁ke 51131
ing 50553
▁for 50464
▁untuk 50360
▁he 50237
kan 49700
▁be 49516
: 49333
▁kita 49106
▁apa 48904
▁not 46991
▁your 44008
▁do 41800
▁on 41765
▁dengan 41721
▁are 40467
▁no 39337
▁have 39281
▁my 38638
▁ada 38507
▁anda 37367
i 37316
▁kami 36192
lah 35175
▁they 35028
▁boleh 34084
y 33123
▁can 31604
▁dari 31275
▁with 30976
▁all 30507
▁so 30054
▁don 29951
▁but 28791
ll 28476
▁was 28227
▁dalam 27292
▁know 27166
▁will 27074
▁% 26840
▁there 26559
▁get 26471
▁go 25714
▁tahu 25417
▁here 25254
▁just 24511
▁ia 23766
▁allah 23687
er 23369
▁him 23109
▁who 22873
▁if 22751
▁oh 22132
▁pada 22105
▁; 21967
▁out 21838
▁up 21147
▁adalah 21108
▁like 21102
▁ 21064
ve 20892
▁one 20845
▁_ 20636
▁right 20618
▁them 20589
n 19976
▁kepada 19944
▁ya 19869
▁orang 19847
e 19823
in 19807
ku 19669
▁semua 19667
▁sini 19618
▁come 19477
▁telah 19068
▁ber 18824
▁from 18749
k 18607
▁as 18457
▁now 18429
▁lagi 18419
▁at 18374
▁tapi 17600
p 17318
▁okay 17263
▁pergi 16997
a 16961
▁she 16495
▁how 16494
▁nak 16492
▁about 16417
ly 16361
g 16295
al 16172
▁got 16109
c 16017
▁want 15759
mu 15753
▁an 15704
o 15627
▁jika 15495
▁his 15415
▁jangan 15367
r 15150
b 15012
▁dapat 14998
▁let 14987
▁jadi 14937
▁sekarang 14859
▁when 14700
▁us 14635
▁or 14513
▁satu 14318
▁yeah 14182
le 14069
▁dah 14016
▁hey 13851
▁baik 13683
▁bukan 13562
▁did 13510
▁her 13489
▁good 13475
▁see 13394
▁seperti 13242
▁back 13112
▁orangorang 12924
▁buat 12912
▁man 12808
▁think 12730
▁lebih 12606
▁well 12587
▁mana 12465
▁' 12450
▁sudah 12396
▁ter 12393
f 12336
▁has 12038
l 12035
▁se 11955
▁then 11939
▁where 11929
▁perlu 11916
la 11812
h 11774
▁time 11636
▁our 11624
▁atau 11586
▁take 11542
▁hari 11539
▁hanya 11506
▁why 11438
_ 11382
▁gonna 11355
▁datang 11296
▁look 11223
▁going 11147
▁by 10965
▁re 10957
or 10931
▁bagi 10799
na 10682
▁ayah 10667
▁say 10650
▁tu 10466
▁down 10343
▁mahu 10342
▁god 10303
▁were 10276
es 10223
ta 10186
▁masa 10141
▁per 10122
▁seorang 10047
▁been 10024
▁ni 10006
▁need 9983
▁would 9968
▁their 9936
▁mungkin 9934
st 9867
▁juga 9803
▁tell 9767
▁sesungguhnya 9667
▁men 9664
▁tiada 9631
▁could 9582
ra 9511
▁had 9464
▁o 9453
ak 9410
/ 9289
▁siapa 9231
se 9230
▁am 9223
ri 9197
▁way 9183
▁bagaimana 9166
en 9153
▁kerana 9147
▁those 9100
▁kalau 9045
li 8992
▁sangat 8952
▁some 8914
▁saja 8902
▁people 8891
▁menjadi 8842
▁sesuatu 8806
▁lain 8691
▁over 8642
x 8631
ma 8588
de 8586
▁please 8500
▁e 8417
te 8386
▁only 8317
▁make 8254
▁nama 8249
▁said 8239
▁adakah 8139
▁tempat 8071
il 8041
sa 7958
▁rasa 7951
▁maka 7945
un 7909
▁s 7843
▁keluar 7839
▁kenapa 7826
▁pernah 7766
▁[ 7757
ah 7748
▁mari 7716
▁tuhan 7669
▁yes 7658
▁help 7635
th 7615
▁more 7610
▁baru 7574
▁oleh 7574
▁lakukan 7565
▁name 7507
▁something 7504
▁mati 7502
▁should 7492
▁give 7487
▁too 7381
w 7379
on 7346
▁tuan 7315
▁diri 7301
us 7294
▁betul 7278
▁fail 7231
▁sama 7212
▁tentang 7175
ro 7173
▁de 7157
ter 7110
▁sana 7101
ha 7068
▁never 7048
▁off 7017
ar 6998
▁pen 6996
▁day 6977
ation 6945
▁un 6945
▁cakap 6917
▁didn 6902
▁banyak 6864
ch 6810
▁la 6803
▁p 6776
] 6742
ion 6741
▁really 6730
▁find 6720
▁new 6712
▁pun 6708
▁sedang 6703
▁c 6668
▁hidup 6664
man 6663
▁anak 6597
▁again 6589
▁sorry 6584
▁sir 6583
ce 6569
▁kembali 6549
▁love 6519
ke 6503
▁two 6486
▁b 6477
▁any 6449
▁because 6446
▁melihat 6433
u 6427
▁masih 6398
at 6384
▁dengar 6311
ik 6273
▁atas 6259
▁beritahu 6228
▁terima 6224
▁daripada 6204
▁lelaki 6203
ga 6191
ti 6176
el 6115
▁apaapa 6108
▁begitu 6054
▁ingin 6026
▁meng 6016
▁t 5989
▁selamat 5974
▁show 5968
▁these 5958
▁lihat 5951
si 5949
▁little 5926
▁before 5917
ir 5899
▁bahawa 5891
▁mr 5878
▁macam 5824
ur 5823
▁kasih 5804
ia 5770
ka 5764
▁life 5764
▁which 5760
pe 5749
▁lord 5710
▁hei 5701
▁masuk 5676
▁even 5670
▁kan 5665
▁tetapi 5643
▁harus 5629
▁berlaku 5625
▁mempunyai 5625
▁ok 5613
▁sebagai 5607
ung 5606
▁into 5587
▁malam 5581
▁maaf 5565
▁keep 5562
▁besar 5551
▁st 5527
ic 5526
▁pe 5512
▁kemudian 5484
▁mean 5450
▁wait 5439
▁ra 5428
as 5421
▁k 5419
▁ku 5405
▁call 5384
▁berkata 5380
▁1 5354
▁cuba 5354
▁sendiri 5348
▁tunggu 5346
▁jalan 5332
▁very 5294
▁stop 5279
▁rumah 5278
▁move 5259
di 5243
z 5236
▁thing 5226
it 5203
me 5171
▁dua 5170
▁bagus 5159
▁doing 5120
ul 5115
▁berada 5113
▁first 5113
▁kata 5113
pa 5098
▁le 5098
▁than 5093
lu 5082
▁suka 5077
ba 5062
▁l 5050
▁con 5045
▁♪ 5042
▁after 5025
to 5018
▁away 5009
▁sure 5002
da 4998
▁engkau 4988
ki 4983
▁hi 4979
mp 4955
▁g 4948
▁file 4946
▁cuma 4926
ment 4909
▁salah 4907
▁pasti 4894
▁baiklah 4869
▁home 4861
▁put 4852
▁na 4846
ut 4841
▁ta 4841
kah 4839
▁li 4838
▁tahun 4834
▁sebelum 4825
▁# 4824
ca 4819
▁tolong 4816
▁si 4810
▁perkara 4804
▁may 4796
▁set 4786
▁believe 4775
▁d 4768
▁kawan 4767
▁much 4766
▁lalu 4762
ne 4761
▁still 4748
▁cepat 4746
▁serta 4742
hi 4732
▁other 4730
▁nampak 4713
2 4703
am 4702
▁sekali 4679
▁/ 4674
▁guys 4668
▁: 4663
ru 4658
▁en 4656
be 4655
ang 4649
ie 4633
▁bila 4627
wa 4582
▁must 4577
ja 4576
ng 4573
per 4543
▁beberapa 4543
ju 4536
is 4526
▁nothing 4526
▁ma 4524
▁work 4522
▁ibu 4516
▁'% 4506
▁shit 4497
▁manusia 4482
▁place 4462
▁does 4460
lo 4458
mb 4457
sh 4454
▁membuat 4453
▁great 4450
▁car 4449
▁fikir 4415
▁2 4412
ni 4407
▁made 4400
▁lama 4398
▁apabila 4390
tion 4388
▁kill 4380
▁turn 4377
▁anything 4373
▁okey 4371
▁peng 4371
▁uh 4352
▁folder 4341
▁last 4338
▁& 4330
▁shall 4322
▁long 4316
co 4314
bi 4303
ian 4300
ers 4298
tu 4291
▁bersama 4288
▁takkan 4281
no 4279
▁dunia 4277
▁ketika 4276
gu 4262
▁sesiapa 4259
▁world 4239
▁stay 4234
▁ambil 4225
▁3 4215
▁bawa 4191
▁tinggal 4186
▁open 4174
▁won 4171
able 4170
▁jumpa 4170
▁leave 4169
▁thank 4168
▁mak 4162
▁pem 4158
▁melakukan 4154
▁pula 4135
▁ro 4125
v 4112
▁talk 4107
et 4099
▁kena 4097
▁sebab 4096
▁ga 4085
▁ka 4042
▁masalah 4039
▁faham 4038
▁po 4038
▁itulah 4037
ci 4022
▁maha 4020
bo 4016
▁ever 4001
ji 3994
▁father 3985
▁al 3969
▁night 3965
▁f 3957
▁air 3942
▁use 3936
▁better 3926
▁son 3912
▁things 3910
▁sayang 3885
▁mengapa 3880
▁everything 3879
ber 3859
▁kali 3856
▁ingat 3838
▁pa 3829
▁cara 3823
▁hell 3809
▁mo 3809
▁ha 3806
go 3792
▁sa 3787
ck 3785
▁benar 3785
▁hal 3779
▁pi 3778
▁sedikit 3772
▁fuck 3769
▁kerja 3765
▁semasa 3759
ting 3758
um 3750
▁memang 3747
▁cari 3727
▁ialah 3723
▁makan 3717
▁every 3716
▁bad 3713
% 3710
▁w 3709
▁antara 3702
ai 3694
▁semuanya 3685
▁bercakap 3684
▁thought 3681
▁left 3677
▁sampai 3643
▁guy 3640
mi 3637
▁dad 3627
bar 3624
ry 3611
▁maybe 3601
▁tangan 3586
▁hati 3576
do 3571
▁bar 3561
▁dead 3553
▁told 3537
▁semula 3535
ap 3534
est 3527
▁run 3520
id 3516
▁co 3497
pun 3484
▁mengambil 3481
▁color 3469
▁mu 3451
▁done 3450
▁mencari 3449
▁patut 3422
▁years 3420
▁fucking 3419
▁mendapat 3418
▁ho 3410
▁seseorang 3407
▁hello 3406
▁beriman 3404
▁always 3401
00 3396
▁around 3395
▁kereta 3390
▁listen 3388
▁su 3383
▁end 3377
▁setiap 3377
▁membunuh 3372
▁bunuh 3367
▁found 3367
▁supaya 3355
▁pertama 3338
▁tengok 3337
cu 3335
▁coming 3330
1 3316
▁bandar 3304
▁bawah 3303
▁cukup 3296
5 3293
ity 3292
uh 3291
▁memberi 3282
▁mengetahui 3276
▁x 3275
▁remember 3268
▁berhenti 3257
pi 3255
▁tentu 3250
▁old 3249
▁mesti 3248
ton 3244
▁lo 3241
▁luar 3240
▁guna 3227
▁doesn 3224
▁polis 3222
▁vi 3222
▁dr 3203
▁perlukan 3202
▁understand 3198
▁through 3190
▁belum 3185
▁perempuan 3183
▁feel 3173
▁5 3172
▁sahaja 3169
▁big 3167
▁percaya 3165
▁wrong 3161
3 3160
ies 3160
he 3145
▁kind 3132
▁three 3128
▁minta 3125
▁maksud 3124
▁10 3118
po 3111
▁lot 3107
men 3104
bu 3100
▁head 3097
▁takut 3096
▁came 3090
▁tanpa 3074
▁ask 3069
▁idea 3068
▁sebenarnya 3063
▁die 3060
▁own 3058
mo 3055
▁most 3052
ran 3051
uk 3047
▁hear 3047
▁mata 3047
▁another 3039
▁kecil 3027
▁fire 3026
▁save 3015
▁terlalu 3014
ge 3012
▁house 3005
▁bumi 3001
▁te 2994
▁berikan 2990
▁city 2983
▁start 2982
▁someone 2979
j 2974
▁error 2966
▁used 2956
▁hold 2955
▁check 2953
▁membawa 2953
min 2949
▁pro 2947
va 2946
▁katakan 2942
▁jam 2937
▁bring 2928
em 2916
pan 2913
▁mem 2913
▁tetap 2913
▁ikut 2910
ver 2909
age 2908
▁keluarga 2904
▁hebat 2901
son 2899
ate 2886
▁fine 2885
je 2877
▁ayuh 2875
▁ne 2862
▁real 2861
ive 2860
4 2850
ok 2850
▁sebuah 2843
▁ti 2829
▁money 2827
vi 2820
ine 2816
▁war 2815
▁care 2813
▁apakah 2809
▁beri 2805
▁brother 2804
ih 2802
▁cannot 2795
▁mi 2795
▁best 2794
▁friend 2794
▁next 2787
▁being 2786
▁dulu 2785
▁u 2779
gg 2778
gi 2778
up 2774
▁demikian 2772
▁nice 2768
▁earth 2761
ad 2747
▁number 2745
▁benda 2744
▁isn 2737
ong 2733
ho 2731
▁hendak 2731
▁data 2726
▁enough 2726
▁ianya 2725
▁balik 2719
▁try 2716
▁many 2714
ent 2713
▁sehingga 2713
▁keadaan 2709
▁same 2703
▁v 2703
ist 2698
▁girl 2690
su 2677
▁today 2676
▁mendengar 2666
▁berapa 2661
▁live 2661
▁ralat 2652
▁might 2646
▁selalu 2646
asi 2645
▁terus 2639
▁secara 2631
▁terjadi 2622
▁huh 2619
ol 2617
▁boy 2616
▁ri 2615
▁ja 2611
▁nabi 2599
▁gagal 2598
▁belakang 2597
▁fight 2596
ance 2595
▁ready 2588
▁gotta 2584
du 2582
ff 2579
▁mother 2569
▁selepas 2564
▁buka 2558
▁saat 2555
hu 2552
tic 2552
▁already 2552
▁family 2552
▁talking 2550
▁mind 2548
kannya 2544
▁da 2542
▁4 2540
▁hand 2539
▁bodoh 2537
▁hard 2536
▁r 2536
▁sent 2535
▁pilih 2533
▁ye 2533
▁nanti 2532
▁maafkan 2531
▁mesej 2530
▁miss 2521
▁gila 2520
▁trying 2515
▁jenis 2513
▁list 2513
▁image 2512
▁key 2512
▁biar 2509
6 2502
▁while 2499
fi 2496
▁mom 2494
▁sentiasa 2494
os 2487
om 2474
▁gu 2474
▁imej 2472
▁berjaya 2470
▁happened 2467
▁job 2460
▁play 2460
▁without 2456
▁6 2449
▁hilang 2436
▁clear 2433
▁getting 2422
▁azab 2418
▁face 2418
▁bergerak 2417
▁biarkan 2416
▁ca 2415
▁sp 2409
▁waktu 2408
▁ba 2404
▁baby 2398
▁menu 2398
▁telefon 2398
aran 2392
pu 2392
▁pre 2385
▁wanna 2381
▁bo 2379
▁dapatkan 2377
ty 2375
▁duduk 2375
▁else 2373
ya 2365
▁looking 2365
▁warna 2365
▁light 2362
▁follow 2359
▁under 2354
7 2350
▁sam 2350
▁tiga 2349
im 2348
▁budak 2341
tor 2338
▁jack 2338
tan 2336
han 2333
▁yet 2329
▁yourself 2328
▁killed 2326
▁wanted 2321
lan 2320
▁ju 2316
▁um 2316
▁lost 2311
▁tidur 2307
▁demi 2306
ster 2302
▁hit 2302
▁kepadanya 2301
▁n 2301
▁saw 2301
▁pintu 2296
ten 2293
dy 2291
▁power 2285
▁pulang 2284
▁biasa 2283
▁watch 2280
ness 2277
▁jauh 2275
▁kuasa 2275
▁john 2269
▁sila 2269
▁ce 2267
▁book 2261
mer 2257
▁together 2255
▁berdua 2251
anda 2250
▁unit 2249
▁indeed 2248
nd 2245
▁mula 2244
▁7 2240
▁far 2239
▁mendapatkan 2239
▁bekerja 2235
▁senjata 2235
▁kekunci 2226
▁pilihan 2226
▁course 2223
▁ru 2223
▁paling 2220
der 2219
if 2215
▁beliau 2215
▁lah 2213
▁send 2209
tik 2200
▁heart 2199
ko 2192
▁change 2192
rat 2186
au 2184
▁waha 2183
less 2177
▁command 2173
▁gadis 2173
▁true 2168
land 2164
▁terakhir 2163
▁problem 2162
▁senarai 2162
▁segala 2161
▁hope 2153
▁gembira 2151
▁h 2147
8 2146
gan 2146
ling 2144
rang 2139
▁such 2139
▁membantu 2138
▁font 2132
▁pay 2132
▁until 2132
▁wanita 2132
bah 2130
▁selama 2128
▁seen 2122
akan 2121
▁m 2120
▁game 2119
▁ten 2113
▁mengatakan 2111
▁plan 2109
▁nor 2107
▁point 2107
▁message 2104
▁ass 2101
▁sc 2101
▁meet 2095
▁ko 2093
▁water 2091
▁20 2090
tur 2089
▁order 2088
tar 2087
▁wa 2084
▁log 2080
▁bilik 2079
lin 2076
▁close 2073
▁everyone 2071
ep 2065
▁lu 2063
▁hu 2062
mon 2061
▁trust 2055
qu 2053
▁both 2050
▁fa 2048
▁gone 2048
▁matter 2047
▁yg 2044
za 2043
▁took 2043
▁teruk 2039
op 2038
▁terhadap 2038
▁neraka 2037
▁once 2037
▁hai 2033
▁whoa 2030
▁line 2021
▁maklumat 2020
ek 2019
▁punya 2019
▁bit 2017
▁anyone 2014
9 2012
▁truth 2010
▁death 2009
▁mel 2008
les 2005
angan 2003
▁buruk 2003
▁high 2002
bat 2001
▁menye 2001
ish 1998
▁kaum 1995
▁tugas 1994
▁sha 1992
▁each 1990
▁fear 1989
▁pan 1989
▁0 1987
▁room 1982
benarbenar 1980
▁ex 1975
▁mudah 1969
▁failed 1968
▁amerika 1966
hal 1963
▁kepala 1963
▁lari 1963
che 1962
▁depan 1959
▁shut 1958
▁thanks 1954
▁menggunakan 1951
▁penting 1947
▁kaki 1945
▁disini 1944
ant 1943
name 1941
▁days 1935
▁knew 1935
▁door 1932
▁saying 1931
▁eyes 1922
ip 1921
▁sta 1921
con 1920
den 1920
▁sun 1920
▁bantuan 1919
▁melainkan 1919
▁pasukan 1917
▁ah 1916
▁pagi 1916
▁bisa 1912
▁tinggi 1910
▁minit 1909
▁sakit 1908
▁heard 1905
▁che 1902
▁sub 1902
▁sepatutnya 1901
ger 1898
▁cinta 1896
▁langit 1896
▁pu 1895
\ 1894
▁part 1893
▁window 1892
ful 1890
▁master 1889
▁bi 1887
gar 1885
▁kid 1882
▁para 1880
▁bahagian 1879
▁surely 1878
ks 1877
▁cantik 1877
▁j 1877
▁eat 1876
▁safe 1875
▁wang 1875
▁actually 1873
▁melakukannya 1873
▁four 1871
▁whatever 1871
▁whole 1870
▁8 1864
▁bulan 1863
ron 1860
▁ar 1860
▁sal 1858
▁also 1856
▁create 1852
▁fi 1852
▁case 1850
▁janji 1849
▁land 1847
kat 1846
▁five 1846
▁memberikan 1846
▁black 1845
▁break 1845
▁wow 1844
▁cut 1843
▁between 1842
▁el 1842
▁upon 1842
▁kuat 1840
▁terbaik 1834
ence 1828
nda 1827
▁damn 1827
▁kenal 1826
▁ben 1823
ara 1821
ab 1820
▁knows 1820
▁morning 1819
▁tadi 1819
▁hands 1816
▁je 1816
▁went 1816
ny 1814
▁com 1813
▁memberitahu 1813
▁%1 1812
▁sah 1809
ping 1806
▁free 1804
▁since 1804
▁wasn 1804
▁tetingkap 1802
▁th 1801
ous 1799
▁menjadikan 1799
▁deal 1794
▁mengu 1790
▁gun 1789
city 1788
▁arah 1787
the 1786
▁kapal 1786
▁hurt 1783
jar 1780
▁kehidupan 1780
▁api 1779
▁main 1779
▁files 1776
▁alone 1773
▁rest 1773
ard 1772
wan 1770
▁called 1767
▁guess 1767
▁format 1763
▁friends 1763
▁read 1761
▁second 1761
▁naik 1760
▁amat 1758
▁sedia 1755
▁human 1754
▁inside 1752
▁couldn 1747
▁text 1745
▁soon 1744
▁bertemu 1743
▁gave 1743
▁pretty 1740
▁ki 1739
▁cu 1738
▁happy 1735
▁minutes 1735
▁police 1732
▁tab 1731
ban 1727
▁search 1726
▁tinggalkan 1724
▁type 1724
▁add 1723
▁mengenai 1723
▁teks 1719
▁kelihatan 1715
▁phone 1713
▁sistem 1710
rus 1709
▁bro 1708
▁* 1707
▁du 1706
▁default 1704
▁enter 1703
▁return 1703
bel 1700
▁ahli 1699
▁comp 1698
ada 1697
annya 1697
▁mar 1696
▁side 1694
▁tentera 1694
▁tanda 1688
▁digunakan 1687
▁hampir 1687
ari 1682
ated 1682
▁seluruh 1680
▁abang 1679
▁meninggalkan 1676
▁king 1675
▁melalui 1675
dang 1672
▁menge 1672
▁nyata 1672
▁kunci 1671
▁menunggu 1664
▁turun 1659
▁000 1657
▁excuse 1655
▁simpan 1653
ner 1652
▁minum 1650
▁tiba 1650
▁kat 1640
▁sin 1640
▁super 1639
ow 1638
▁permainan 1638
▁whom 1638
▁few 1635
▁path 1631
▁system 1630
▁muka 1628
▁means 1626
ot 1625
▁laluan 1622
▁bangun 1620
▁berjalan 1620
▁kehilangan 1620
▁easy 1619
▁tunjukkan 1619
we 1618
▁kiri 1617
▁shot 1616
af 1613
vo 1613
▁stand 1612
▁wouldn 1611
▁yakin 1608
▁gra 1607
▁buku 1602
▁select 1602
lar 1601
mbang 1601
red 1597
▁control 1597
▁tolonglah 1596
▁pick 1594
▁sign 1594
ious 1593
ren 1592
lang 1591
▁diam 1591
end 1589
▁promise 1589
▁worry 1589
▁win 1585
▁drink 1584
▁selesai 1583
▁yo 1583
▁pelayan 1581
▁fall 1579
▁full 1579
▁star 1579
pen 1578
▁berfikir 1577
▁looks 1575
▁count 1574
▁nombor 1574
nt 1573
▁fe 1573
▁lepaskan 1573
▁among 1571
▁ago 1570
▁dekat 1569
fa 1566
▁crazy 1565
▁school 1564
▁tomorrow 1562
hether 1558
▁mampu 1558
▁item 1557
wi 1554
▁kafir 1554
▁mark 1552
▁given 1551
▁ain 1548
▁late 1548
▁setelah 1548
▁except 1547
▁video 1547
▁sebahagian 1544
▁wife 1543
▁hentikan 1541
▁9 1538
▁speak 1537
ary 1536
▁sel 1536
▁dimana 1535
▁menarik 1533
angka 1532
▁duit 1532
▁program 1529
▁team 1528
▁word 1528
▁sebarang 1524
▁kon 1522
▁become 1521
▁tanya 1519
▁bersedia 1518
▁mine 1517
▁gi 1516
▁alive 1514
▁chance 1514
▁daughter 1514
▁selamatkan 1514
▁hang 1512
▁haven 1512
▁raja 1512
▁working 1512
▁kar 1511
▁person 1511
mar 1510
▁suatu 1510
▁meminta 1509
que 1508
lat 1507
▁penuh 1507
▁anakanak 1506
▁ge 1506
so 1505
▁blood 1504
▁server 1503
ring 1502
▁answer 1498
▁harap 1496
▁wish 1496
ahkan 1488
▁makanan 1488
▁everybody 1487
▁fun 1487
▁kebenaran 1485
▁ramai 1484
▁myself 1480
▁cik 1477
▁touch 1476
▁behind 1475
▁bu 1475
▁information 1475
▁walk 1474
war 1473
▁mis 1473
▁jelas 1470
▁petunjuk 1470
▁y 1470
ler 1467
▁encik 1467
▁says 1465
▁agak 1463
▁brought 1462
▁tembak 1462
▁tonight 1461
▁evil 1460
aya 1459
▁jua 1459
▁dahulu 1458
▁display 1457
▁bahkan 1456
▁tua 1456
▁jo 1455
out 1454
▁unto 1454
▁size 1453
▁berita 1451
set 1450
▁terbang 1450
▁panggil 1449
asan 1447
▁selected 1446
▁view 1445
▁semak 1444
▁user 1444
▁welcome 1442
▁forget 1441
▁menerima 1440
▁negara 1439
▁baris 1438
▁katakanlah 1438
ahan 1436
▁label 1436
▁rancangan 1435
rah 1433
ris 1433
▁hantar 1433
▁value 1433
▁step 1432
put 1431
▁merasa 1428
▁bapa 1426
ley 1425
▁shoot 1425
▁walaupun 1425
gen 1424
tro 1422
oo 1421
▁pukul 1420
▁sit 1419
▁“ 1418
rs 1417
▁dise 1417
▁happen 1416
▁exactly 1415
▁nilai 1415
▁bank 1414
▁business 1413
▁menurut 1412
▁red 1410
▁date 1409
▁pull 1409
isi 1408
▁memerlukan 1405
▁saiz 1404
▁sisi 1403
ub 1402
▁protect 1402
▁tanah 1402
▁12 1400
▁memiliki 1400
▁dipilih 1398
▁san 1397
bal 1394
▁padanya 1394
▁menga 1392
▁rasul 1389
▁different 1386
▁cap 1382
▁dengannya 1382
bur 1381
dia 1381
▁arahan 1381
▁darah 1380
▁khabar 1379
ec 1378
▁gambar 1378
▁esok 1375
▁quit 1375
▁isteri 1374
▁harry 1371
▁lepas 1369
▁mon 1369
▁ac 1368
▁drive 1367
▁har 1367
▁amaran 1366
▁tepat 1364
▁frank 1363
▁oliver 1363
▁arm 1361
inya 1359
let 1359
ize 1356
▁mod 1355
▁teruskan 1354
cing 1353
▁sekolah 1352
▁membuka 1350
▁woman 1350
▁ruang 1349
▁secret 1349
dar 1347
▁fast 1347
▁sy 1346
▁teman 1345
▁bermain 1344
▁makes 1344
▁kecuali 1343
▁perintah 1343
▁year 1343
by 1342
▁address 1342
▁contact 1342
▁group 1342
▁remove 1342
▁ran 1340
▁mau 1339
▁$ 1336
▁gunakan 1332
▁kalian 1332
▁kurang 1332
▁minggu 1332
my 1329
pak 1328
▁30 1328
▁bantu 1328
▁beautiful 1328
▁status 1327
▁question 1326
▁kanan 1322
▁mad 1319
▁seek 1317
▁port 1315
▁bertanya 1314
▁kgm 1314
▁taking 1310
▁times 1310
▁child 1308
▁lima 1308
▁captain 1307
▁tri 1307
tra 1306
▁cerita 1306
▁terdapat 1306
▁current 1305
▁sing 1305
ye 1304
▁six 1304
▁tiaptiap 1304
▁nu 1303
but 1302
▁children 1302
▁wall 1299
▁comes 1296
▁dog 1296
▁kepadamu 1296
▁kekal 1295
▁papar 1294
▁hanyalah 1293
▁peluang 1293
▁boss 1292
▁saudara 1286
line 1283
▁anjing 1281
▁top 1280
▁chi 1278
▁stuff 1277
▁reason 1274
rate 1273
▁berakhir 1272
▁gar 1272
▁sejak 1272
▁batu 1271
= 1267
jo 1267
▁ji 1267
▁puan 1267
rai 1266
▁segera 1266
▁cipta 1264
▁empat 1264
▁white 1264
roleh 1263
ham 1261
▁dialog 1261
cy 1259
▁later 1259
nder 1258
▁body 1257
led 1256
▁action 1255
▁kawasan 1254
▁act 1253
▁milik 1253
▁bye 1252
▁news 1252
▁thou 1252
▁50 1251
▁jatuh 1251
▁hurry 1250
▁lokasi 1250
▁menyelamatkan 1250
▁learn 1249
way 1248
▁though 1248
▁cause 1247
ud 1246
▁jadikan 1245
▁peduli 1245
ee 1243
kin 1242
▁kumpulan 1242
▁half 1241
▁” 1241
▁past 1240
▁charlie 1239
tak 1238
▁perang 1238
▁least 1237
▁pass 1237
▁cool 1234
▁exp 1233
▁tutup 1233
▁edit 1231
▁rahsia 1231
▁sial 1231
▁bitch 1230
▁force 1228
▁nah 1228
▁running 1228
▁sister 1228
▁sleep 1228
▁yu 1227
▁bukanlah 1226
▁menang 1226
▁bersamasama 1225
▁cha 1225
▁kitab 1224
▁thinking 1224
▁alamat 1223
▁risau 1223
▁auto 1221
▁probably 1221
bit 1220
▁alat 1220
▁met 1220
▁kedua 1219
q 1218
▁report 1216
▁bas 1215
▁able 1214
▁david 1214
ick 1213
iti 1213
▁perjalanan 1213
▁beat 1212
▁keterangan 1212
▁drop 1210
▁menghantar 1210
▁copy 1209
▁tengah 1206
▁berubah 1205
▁kapten 1205
▁hospital 1204
ze 1202
▁having 1200
▁mode 1200
ikan 1199
time 1199
▁berat 1199
▁minute 1197
▁test 1196
▁] 1195
▁baca 1194
▁supposed 1194
▁wujud 1192
ken 1191
of 1191
▁15 1191
> 1190
bb 1190
▁page 1190
▁waiting 1190
▁delete 1189
▁rasanya 1189
vis 1188
▁afraid 1188
▁created 1187
▁dokumen 1185
▁fikirkan 1185
10 1184
▁ab 1184
▁barang 1184
▁kira 1184
▁sebenar 1183
▁young 1183
ving 1182
▁cal 1182
▁tra 1182
▁alquran 1180
▁penye 1178
▁jahat 1177
kali 1176
▁tambah 1176
▁somebody 1175
▁account 1173
▁memper 1173
▁wi 1172
▁= 1171
▁kosong 1171
▁membaca 1168
▁nampaknya 1168
▁begini 1167
▁belajar 1163
▁ship 1162
sta 1160
▁law 1160
▁selain 1160
▁joe 1159
▁sebelah 1159
▁special 1159
tis 1158
▁marah 1157
▁kematian 1156
atan 1154
▁musa 1154
act 1153
▁bukankah 1153
▁dirinya 1153
▁near 1150
▁trans 1150
kal 1149
nan 1149
▁kids 1149
▁import 1148
▁barry 1147
ever 1144
har 1144
▁queen 1144
▁tangkap 1143
akkan 1142
ium 1142
▁– 1140
▁none 1139
ial 1138
lay 1138
▁document 1138
▁jaga 1137
▁penga 1137
▁) 1136
▁normal 1135
ram 1134
▁va 1134
mula 1133
▁imp 1133
▁story 1133
▁bra 1132
▁hours 1131
▁moment 1131
tri 1130
▁beg 1130
▁sungguh 1128
▁box 1127
▁cover 1127
▁aren 1126
▁hot 1125
▁nobody 1125
▁asked 1124
▁sukar 1124
▁party 1123
▁art 1120
▁hingga 1120
▁print 1119
ble 1118
lip 1118
▁lose 1118
▁sound 1118
▁pop 1117
▁food 1116
▁bunyi 1115
▁des 1115
▁sumber 1113
▁adik 1112
▁pasal 1112
▁keselamatan 1111
ps 1110
▁attack 1110
▁bolehkah 1110
rt 1109
day 1103
▁em 1103
▁pengguna 1103
pp 1099
▁nick 1099
:% 1098
▁object 1097
▁others 1097
▁panel 1096
▁pin 1096
kanlah 1095
igh 1094
▁tuhanmu 1094
▁veril 1094
▁suruh 1093
▁track 1092
▁making 1091
▁tenang 1090
▁class 1088
▁tag 1088
chi 1087
kar 1087
▁hate 1087
▁menunjukkan 1087
▁small 1087
▁green 1086
▁menjawab 1086
▁either 1085
▁buang 1084
▁lead 1084
▁betulbetul 1082
▁location 1082
▁perasaan 1082
yang 1081
fo 1080
▁parti 1080
▁masukkan 1079
▁penjara 1079
▁street 1079
▁tentulah 1079
▁died 1078
▁dilakukan 1077
▁front 1077
▁bag 1076
▁berjumpa 1076
cause 1075
▁anymore 1075
▁outside 1075
▁town 1075
▁state 1074
ator 1073
▁trouble 1073
▁pastikan 1072
▁rock 1072
lap 1071
▁lupa 1071
▁pesawat 1071
car 1070
▁catch 1070
▁celaka 1069
▁bos 1067
▁menyimpan 1066
▁boys 1065
▁harta 1062
▁soul 1062
▁fact 1061
▁berdiri 1059
▁rakan 1059
▁manamana 1058
▁mike 1058
▁anyway 1057
▁app 1057
▁awal 1056
▁option 1056
cur 1055
▁sepanjang 1055
ors 1054
▁million 1054
▁seksa 1054
▁lakukannya 1049
▁week 1049
bas 1048
▁bahasa 1048
▁syurga 1048
▁doktor 1047
▁bukti 1046
▁choose 1046
zz 1045
tle 1044
▁mulakan 1043
▁clean 1041
lum 1040
vin 1040
asa 1039
▁balasan 1039
▁gen 1035
▁table 1035
0 1034
▁doctor 1034
▁situ 1034
ey 1033
▁alright 1033
▁bertahan 1033
and 1032
▁sedar 1032
▁taken 1032
▁device 1031
▁dude 1031
▁hmm 1031
▁started 1031
▁soalan 1030
▁berke 1029
▁level 1029
▁saved 1029
▁kanakkanak 1028
▁menembak 1027
▁block 1026
▁gel 1026
▁pergilah 1026
uhan 1025
▁baikbaik 1025
▁keputusan 1025
ina 1024
▁lock 1024
▁important 1023
▁musuh 1023
▁van 1023
▁muda 1022
gel 1021
kap 1021
▁inter 1021
▁ban 1020
▁jesus 1020
▁pihak 1020
▁bertenang 1019
▁password 1018
▁sihir 1017
▁women 1017
▁akhirnya 1016
▁options 1016
▁ver 1016
▁panas 1015
▁goes 1013
ana 1012
▁bermakna 1012
▁memilih 1012
▁beli 1011
▁han 1010
▁menjaga 1010
▁dream 1009
▁security 1009
▁suara 1009
▁needs 1008
▁za 1008
▁invalid 1007
▁nya 1006
▁satusatunya 1006
jang 1005
▁almost 1005
▁output 1004
ite 1003
▁sara 1003
▁america 1002
▁kad 1002
▁periksa 1002
cat 1000
ice 999
▁char 999
▁panggilan 997
▁zalim 997
uan 996
▁gnome 996
▁berani 995
▁sur 995
eth 994
▁heavens 994
▁op 994
▁cat 993
▁daddy 992
▁pur 992
lic 991
log 990
nes 990
▁diper 990
▁mc 990
▁perkataan 990
▁utama 990
▁cop 989
▁feeling 989
▁tried 989
our 988
shi 988
▁serius 988
▁cho 987
lihat 986
▁melihatnya 986
▁sea 986
▁seterusnya 986
▁gri 985
▁ser 984
rap 983
▁mencipta 982
▁source 982
rc 981
▁hitam 979
atkan 978
run 978
▁hearts 978
bul 977
ual 977
▁bermula 976
▁moving 976
▁hour 975
▁position 975
▁ball 974
hen 973
▁blow 973
▁lady 973
▁memanggil 972
▁kisah 971
▁hero 970
▁himself 970
▁reach 970
▁scared 970
▁train 970
▁opsyen 969
▁19 968
▁stupid 968
▁draw 967
▁ketua 967
▁target 967
▁card 966
▁diketahui 966
▁buy 965
▁hide 965
▁menulis 965
▁bimbang 964
▁mal 964
▁pelik 964
▁record 964
▁mengubah 963
▁pakaian 963
▁sw 963
▁match 962
▁uncle 962
jah 961
▁honey 961
▁throw 961
action 960
kh 960
▁york 960
▁perbuatan 959
bin 958
▁ahead 958
▁tukar 957
▁11 956
▁max 956
▁menuju 956
▁hotel 954
▁min 954
▁certainly 953
▁country 952
▁punishment 951
▁figure 948
▁fiji 948
▁lives 948
▁themselves 948
▁makhluk 947
ward 945
▁quick 945
▁ring 945
zi 944
▁mac 944
ning 943
▁bear 943
▁kom 943
▁dec 942
▁eye 942
▁peta 942
▁operation 941
ating 939
▁negeri 939
for 937
tel 937
▁keluarkan 937
▁mengandungi 937
win 936
amp 935
▁hadapan 935
▁q 935
dah 934
king 934
▁z 934
ac 932
▁kesan 932
▁mag 932
lam 931
▁access 931
▁choice 931
▁pakai 931
▁bebas 930
▁button 930
▁menemui 929
▁using 928
▁radio 927
cent 926
▁join 926
lt 925
▁perfect 925
▁piece 925
▁sempurna 925
▁space 925
▁accept 924
▁glad 924
▁north 923
▁planet 923
▁shi 923
io 922
▁cur 922
▁surat 922
▁direktori 921
▁disebabkan 921
▁sho 921
▁par 920
▁den 919
▁kejadian 919
▁ed 918
ker 917
▁code 917
▁mahukan 917
▁panjang 917
jam 916
▁bed 916
▁wear 916
▁bre 915
▁field 915
▁200 914
▁berbeza 914
▁handle 914
▁los 914
▁mess 914
▁buddy 913
▁dark 913
▁iaitu 913
pat 912
▁desktop 911
▁melindungi 910
pro 909
▁along 909
▁bomb 909
▁pain 909
▁states 909
▁tarikh 907
▁bahaya 906
▁kini 906
▁faith 905
▁fikiran 905
▁hak 904
▁hubungan 904
▁james 904
▁ram 904
ther 902
▁peace 902
▁seven 902
▁siap 902
▁letakkan 900
▁wo 900
▁web 899
▁kekuatan 898
▁malaikat 897
▁unknown 896
▁ray 895
▁share 895
ita 894
▁< 894
▁sort 894
▁asia 893
▁fish 892
▁alam 891
▁angkat 890
▁diberi 890
▁gerak 889
▁signs 888
▁tersebut 888
▁write 888
▁application 887
▁ayatayat 887
ric 886
▁padaku 886
▁bilangan 885
▁future 885
▁juta 885
▁tv 885
ou 884
▁hair 884
▁india 884
▁laut 884
▁marilah 884
▁possible 884
▁putih 884
uc 883
▁mesin 883
▁nyawa 883
▁office 883
ua 882
nama 881
▁witness 881
aga 880
▁girls 880
ure 879
▁murder 878
▁sementara 877
▁terminal 877
ig 876
▁magic 876
▁bal 875
▁pak 875
▁slow 875
▁sesudah 874
▁worth 874
ries 873
▁100 872
▁berse 872
▁kebaikan 872
▁service 872
▁alex 870
▁cahaya 870
▁robot 870
▁roll 869
ified 868
▁kod 868
▁tree 867
▁messenger 865
▁pengu 865
▁lihatlah 864
▁alasan 863
▁forgive 863
▁keras 863
▁tan 863
eng 862
▁bur 862
▁mengha 861
ura 860
▁bayi 860
▁task 860
▁apapun 859
▁disc 859
▁empty 859
▁leg 859
▁sekejap 859
▁ulang 858
▁binatang 857
▁words 857
▁months 855
▁present 855
▁remain 855
ugh 854
▁burn 854
▁strong 854
bra 853
▁pegang 853
▁syarikat 853
rit 852
▁believers 852
▁cl 852
▁input 852
▁sambungan 852
▁@ 851
side 850
▁cell 850
▁bak 849
▁dear 849
▁peluru 849
bus 848
▁wake 848
▁contain 847
▁leaving 847
▁agent 846
▁changed 846
▁sky 846
▁ayo 845
▁mistake 845
ria 844
▁dar 844
▁seem 844
ship 843
▁general 843
▁paparan 843
▁project 843
▁support 843
+ 840
awa 840
nu 840
▁ham 840
▁officer 840
ged 839
▁lie 839
▁papa 839
▁rahmat 839
▁screen 839
▁mimpi 838
ture 837
▁editor 837
▁membiarkan 837
▁michael 837
▁peranti 837
all 836
▁lupakan 836
▁tindakan 836
* 834
▁presiden 834
▁meeting 833
▁sesuai 833
▁merah 832
▁peraturan 832
▁sand 832
▁christ 831
▁messages 831
▁syaitan 831
mpul 830
ngan 830
▁guard 830
▁president 830
▁fair 829
▁gold 829
rin 828
▁happens 828
▁smart 828
cang 827
▁connection 827
▁entire 827
sel 826
▁tam 825
press 824
▁bukannya 823
▁exist 823
▁bertaqwa 822
▁komputer 822
▁park 822
ali 821
▁aplikasi 821
▁badan 821
▁sasaran 821
▁sebentar 821
ini 820
▁expect 820
▁parents 820
▁rosak 820
▁seems 820
▁langsung 819
▁pembunuh 819
▁perhatian 819
▁peter 819
▁projek 819
▁blue 818
▁kenalan 818
▁pistol 817
▁thu 817
▁tau 816
▁missing 815
▁short 815
▁till 815
▁whoever 815
key 814
▁flash 813
▁sangka 813
mm 812
▁diberikan 812
▁road 812
▁straight 812
▁terpaksa 812
▁kerajaan 811
▁thee 811
▁melawan 810
▁mengikut 809
▁segalanya 809
▁senang 809
▁funny 808
▁lee 808
▁character 807
▁cr 807
▁nenek 807
▁fl 806
▁kebanyakan 806
▁wonder 806
ach 805
▁halaman 805
▁hubungi 805
▁langkah 805
od 804
▁base 804
▁sh 804
▁siapakah 804
▁ground 803
▁tarik 803
▁burung 802
▁foot 802
▁personal 802
▁sick 802
▁tetapkan 802
▁icon 801
▁mercy 801
▁pejabat 801
▁picture 801
▁col 800
▁couple 800
▁works 800
ally 799
tuan 798
▁berbua 798
▁happening 797
▁berharap 796
▁akhir 794
▁cy 794
▁plugin 794
▁mail 793
▁south 793
one 791
▁butang 791
▁temp 791
▁akhirat 790
▁misi 790
▁sm 790
▁dev 789
▁east 789
▁offer 789
ex 788
tung 788
▁area 788
▁known 788
▁rich 787
▁suit 787
▁sometime 786
nce 785
▁`% 785
▁fu 785
▁pengetahuan 785
▁sweet 785
▁luck 784
▁media 784
▁mencuri 784
▁mission 784
lon 783
▁anybody 783
▁kawalan 783
▁nes 783
▁guru 782
▁kotak 782
▁meletakkan 782
▁worship 782
agi 781
▁island 780
▁tempoh 780
▁directory 779
▁mor 779
50 778
▁datuk 778
▁menciptakan 778
▁sense 778
▁pekerjaan 777
▁perubahan 777
▁semoga 777
▁jump 776
▁keys 776
▁link 776
▁setengah 776
▁living 775
▁quiet 775
▁tidakkah 775
tera 774
▁seconds 774
ati 773
▁process 773
bil 772
▁amal 772
▁bijak 772
▁saksi 772
▁tahan 772
ktif 771
▁asking 771
▁china 771
ities 770
▁berusaha 770
▁switch 770
:00 769
ala 769
file 769
▁aw 769
▁perjanjian 769
▁pra 769
▁rid 769
▁song 769
▁speed 769
sen 768
▁camp 768
▁map 768
▁papan 768
▁umat 767
arkan 766
hati 766
▁building 766
▁tali 766
▁golongan 765
▁penya 765
lia 764
▁adam 763
▁evolution 763
▁host 763
▁indah 763
▁reward 763
type 762
van 762
▁click 762
▁ren 762
▁unless 762
mat 761
tif 761
▁benci 761
▁eh 761
▁computer 760
▁peribadi 759
▁baju 757
▁def 757
▁peti 757
▁knowledge 756
▁suami 756
pt 755
rd 755
▁menyebabkan 755
▁sebabnya 755
▁string 755
▁explain 754
▁pegawai 754
▁urusan 754
ise 753
▁memikirkan 753
▁moon 753
▁plane 753
▁cri 752
▁mama 752
▁muncul 752
▁ugama 752
ier 751
▁kr 751
▁post 751
▁spend 751
▁agen 750
▁honor 750
▁pat 750
▁suci 750
▁fit 749
▁month 749
▁serangan 749
ribu 748
▁careful 748
▁cross 748
▁jin 748
▁machine 748
▁sl 748
▁version 748
ea 747
low 747
▁cetak 747
▁destroy 747
▁jim 747
▁kesalahan 747
▁kurnia 747
light 746
rick 746
▁calling 746
▁enjoy 746
▁masanya 746
▁terang 746
pon 745
▁dance 745
▁grand 745
▁music 745
▁operasi 745
▁ubah 745
ctor 744
▁jawab 744
▁meny 744
▁harga 743
▁yah 743
ef 742
▁fo 742
▁kelas 742
▁objek 741
ient 740
▁muat 740
▁stick 740
▁dalamnya 739
▁feet 739
▁fool 739
▁fr 739
▁pengurus 739
▁respect 739
▁ffff 738
val 737
▁charge 737
▁less 737
▁single 737
▁menangkap 736
▁playing 736
▁seat 736
▁rain 735
▁rec 735
bang 734
▁calm 734
▁er 734
▁kamera 734
▁bill 733
▁daripadanya 732
▁hadiah 732
▁local 732
▁west 732
cl 731
len 731
▁kick 731
▁kim 731
▁memahami 731
▁membeli 731
port 730
ray 730
▁akaun 730
▁allow 730
▁instead 730
▁lucky 730
▁beside 729
▁correct 729
▁longer 729
▁tulis 729
} 728
▁bat 728
▁aksara 727
▁request 727
▁cold 726
▁station 726
old 725
▁mendustakan 725
▁rep 725
▁sounds 725
▁escape 724
▁gelap 724
▁forever 723
▁mulai 723
▁bom 722
▁percayakan 722
rasi 721
▁fly 721
▁following 721
▁namanya 721
eb 720
▁company 720
gue 719
row 719
▁benarkan 719
▁judge 719
▁lagu 719
▁penduduk 719
▁tar 719
kir 718
▁emas 718
▁warning 718
lot 717
▁teach 717
▁dig 716
▁guide 716
▁memori 716
▁titik 716
neither 715
▁audio 715
▁gentlemen 715
▁perhaps 715
▁serious 715
▁doubt 714
▁sejuk 714
▁package 713
▁aman 712
▁asal 712
▁cook 712
▁udara 712
ikat 711
▁garis 711
▁selection 711
▁camera 710
▁mulut 710
▁sekitar 710
cha 709
tahu 709
▁sampah 709
▁form 708
▁mayat 708
▁memakai 708
▁sad 708
can 707
▁ip 707
▁treat 707
▁tujuan 707
ev 706
ulang 706
▁gate 706
▁jer 706
▁meninggal 706
▁lemah 705
▁qua 705
ez 704
▁ditetapkan 704
▁sell 704
▁army 703
▁bangunan 703
▁kaya 703
▁memory 703
▁network 703
▁oke 702
besar 701
▁forward 701
▁hukum 701
▁pindah 701
off 700
▁alih 700
▁consider 700
jak 699
lie 699
▁bus 699
▁deep 698
▁sil 698
▁tamat 698
▁\ 697
▁ci 697
▁press 697
ade 696
juk 696
▁matahari 696
▁skrin 695
ay 694
ging 694
▁angin 694
▁enam 694
▁fault 694
▁finish 694
▁diperlukan 693
▁ek 693
▁river 693
▁berkahwin 692
▁grow 692
▁habis 692
▁mengajar 692
▁push 692
▁ujian 692
▁arrow 691
▁custom 691
▁wood 691
rk 690
lock 689
▁25 689
▁gas 689
▁gene 689
com 688
▁partner 688
▁shouldn 688
ory 687
▁cor 687
▁load 687
▁sejarah 687
▁tim 687
▁history 686
▁bird 685
▁letak 685
caya 684
ney 684
nja 684
▁menghalang 684
▁strange 684
▁deliver 683
▁whi 683
▁kepadaku 682
▁eight 681
▁fat 681
ungan 680
▁boo 680
▁hat 680
oh 679
yo 679
▁sukakan 679
ass 678
ov 678
▁cd 678
▁grab 678
▁jari 678
▁tepi 678
▁term 678
her 677
▁hath 676
▁note 676
▁setuju 676
▁sex 676
▁swear 676
▁victor 676
▁bersalah 675
▁sentuh 675
▁shell 675
▁turut 675
20 674
▁ken 674
▁pengawal 674
▁versi 674
▁hatihati 673
▁settings 673
▁thy 673
▁dinner 672
▁photo 672
▁~ 672
▁tool 671
▁var 671
gon 670
▁harm 670
▁kiamat 670
▁married 670
▁paper 670
▁pemilihan 670
▁sikit 670
▁grid 669
▁ingkar 669
▁melarikan 669
▁tele 669
▁travel 669
▁uruskan 669
fu 668
▁filem 668
▁saluran 668
▁visit 668
é 667
▁disbelieve 667
▁appear 666
▁wajah 666
buru 665
tical 665
▁24 665
▁seeing 665
▁semalam 665
▁bayar 664
▁bergurau 664
▁lab 664
▁connect 662
▁rela 662
▁chris 661
▁carl 660
▁mence 660
▁taste 660
uhkan 659
▁berkuasa 659
▁isyarat 659
▁jawapan 659
buk 658
cut 658
mate 658
▁hujan 658
▁18 657
▁kakak 657
▁peringatan 657
orn 656
▁above 656
▁event 656
▁glo 656
ical 655
kata 654
▁ride 653
▁channel 652
▁email 652
▁fix 652
▁menetapkan 652
▁permission 652
▁membayar 651
▁sungai 651
▁ganti 650
▁heaven 650
▁menolong 650
▁pertolongan 650
▁stone 650
gin 649
▁forth 649
▁kufur 649
▁paul 649
▁tro 649
nie 648
▁deny 648
▁member 648
▁merupakan 648
▁voice 648
▁bau 647
▁hasil 647
▁layer 647
▁bud 646
▁keyboard 646
▁maksudkan 646
▁round 646
▁sebaik 646
11 645
▁dangerous 645
▁ikon 645
▁killing 645
▁sekalian 645
empat 644
▁gro 644
▁somewhere 644
ette 643
▁dewa 643
▁goddamn 643
ii 642
you 642
▁jiwa 642
▁kde 642
gun 641
▁bay 641
▁bob 641
▁brain 641
▁finally 641
▁keduadua 641
▁monster 641
lau 640
read 640
▁relax 640
part 639
▁berundur 639
▁concern 639
▁diturunkan 639
▁rambut 639
▁sambil 639
ear 638
▁bola 638
ned 637
▁berpaling 637
▁selesaikan 637
▁terbuka 636
▁continue 635
▁model 635
▁balas 634
▁gang 634
▁kiss 634
▁menca 634
fer 633
▁14 633
▁ooh 633
▁birthday 632
▁mencintai 632
▁swa 632
▁adil 631
▁deeds 631
▁gaya 631
▁lay 631
▁american 630
▁available 630
▁bertindak 630
▁luc 630
▁pel 630
▁thousand 630
udi 629
▁enable 629
▁idiot 629
▁mengeluarkan 629
▁trip 629
▁url 629
▁band 628
▁husband 628
▁maksudnya 628
▁tipu 628
▁ajar 627
▁akal 627
▁desire 627
▁hidayah 627
▁steal 627
▁pack 626
utan 625
▁bentuk 625
▁mary 625
▁prison 625
▁pusat 625
▁‘ 625
kasi 624
mana 624
▁istimewa 624
▁membalas 624
▁spa 624
▁double 623
▁klik 623
▁konfigurasi 623
▁london 623
▁padam 623
▁berjanji 622
▁ghost 622
▁gigi 622
▁seolaholah 622
▁fighting 621
▁giving 621
▁gift 620
▁katakata 620
▁menari 620
▁rat 620
▁sar 620
▁windows 620
ntang 619
▁truck 618
▁16 617
▁alamak 617
▁menangis 617
▁sebut 617
▁tubuh 617
▁billy 616
▁cer 616
▁confirm 616
▁pokok 616
▁wind 616
kau 615
▁berguna 615
▁floor 615
▁hunt 615
▁yöu 615
ben 614
▁bri 614
▁feed 614
▁pedang 614
▁questions 614
▁signal 614
▁weird 614
▁40 613
▁broke 613
▁ear 613
▁miles 613
▁shh 613
▁anti 612
▁tunduk 612
use 611
▁` 611
▁cro 611
▁pandang 611
▁disana 610
▁lapisan 610
▁laporan 610
▁self 610
law 609
▁kota 609
▁memandu 609
apkan 608
rr 608
soever 608
▁chu 608
▁goodbye 608
▁ice 608
▁kept 608
▁low 608
▁kejahatan 607
▁surprise 607
▁tertentu 607
▁within 607
az 606
uli 606
ville 606
▁board 606
▁tambahan 606
▁perse 605
▁rangkaian 605
▁smell 605
▁masingmasing 604
▁} 604
dam 603
▁kalah 603
▁ladies 603
▁store 603
▁turunkan 603
▁aktif 602
▁kulit 602
▁terlepas 602
cc 601
dor 601
ible 601
▁focus 601
▁ger 601
▁major 601
▁menyerang 601
▁movie 601
▁tingkat 601
▁bang 600
▁bersumpah 600
had 599
▁dadah 599
▁dosa 599
▁holy 599
▁jun 599
▁kidding 599
▁liar 599
▁content 598
▁professor 598
▁tetapan 598
rid 597
▁arrest 597
▁berfungsi 597
▁kedudukan 596
▁poor 596
▁segalagalanya 596
▁bicara 595
▁jumlah 595
▁mouth 595
▁roger 595
aught 594
▁cas 594
▁enemy 594
▁hum 594
▁pembunuhan 594
cal 593
▁private 593
▁rick 593
pal 592
▁canon 592
▁ubat 592
▁buah 591
▁dave 591
▁kandungan 591
▁kuda 591
▁lawan 591
▁scar 591
▁zoom 591
▁filter 590
▁hundred 590
▁ze 590
▁pemain 589
▁proses 589
▁roman 589
▁simple 589
sign 588
▁large 588
▁memulakan 588
▁middle 588
▁realize 588
head 587
rain 587
▁ow 587
ized 586
▁bla 586
▁buck 586
▁certificate 586
▁grant 586
▁menjalankan 585
▁sen 585
▁soleh 585
▁asshole 584
▁bina 584
▁membunuhnya 584
▁carry 583
▁kawankawan 583
▁laugh 583
▁stock 583
▁worked 583
▁jan 582
▁soldier 582
▁bell 581
▁danny 581
▁kedai 581
▁melepaskan 581
pur 580
rif 580
▁crime 580
▁jane 580
▁perkahwinan 580
▁weeks 580
script 579
▁begin 579
▁complete 579
▁drag 579
▁weak 579
▁didalam 578
▁membuang 578
▁menakjubkan 578
▁menakutkan 578
▁rather 577
▁susah 577
iff 576
▁age 576
▁animal 576
▁jom 576
▁utara 576
▁amazing 575
▁bahan 575
▁boat 575
▁build 575
▁jake 575
▁minuman 575
▁moses 575
▁’ 575
▁firaun 574
▁fra 574
▁harapan 574
▁lt 574
▁strength 574
▁temu 574
▁watching 574
don 573
work 573
▁chan 573
▁rasulrasul 573
▁chief 572
▁hutan 572
▁latar 572
▁memuatkan 572
▁sijil 572
▁warn 572
▁worse 572
came 571
lor 571
▁dean 571
▁finger 571
▁lampu 571
▁prayer 571
▁pulau 571
▁sibuk 571
▁style 571
▁title 571
baik 570
nger 570
▁believed 570
▁column 570
▁dibuat 570
▁perform 570
▁remote 570
▁daging 569
▁internet 569
▁layak 569
▁manage 569
▁symbol 569
gram 568
▁apos 568
▁pandangan 568
aku 567
cross 567
main 567
▁cast 567
▁cedera 567
▁knock 567
▁saint 567
▁tujuh 567
comp 566
▁apart 566
▁cry 566
▁favor 566
▁mask 566
▁menurunkan 566
▁wise 566
▁mulia 565
▁public 565
▁village 565
{ 564
▁keutamaan 564
kong 563
▁steve 563
▁otak 562
▁pakej 562
nta 561
▁angels 561
▁element 561
▁permulaan 560
▁risk 560
long 559
▁hantu 559
▁perniagaan 558
▁sabar 558
▁secure 558
ative 557
▁condition 557
▁fbi 557
▁nasib 557
▁prove 557
▁revealed 557
▁government 556
▁malah 555
▁mengawal 555
@ 554
▁pelan 554
▁tajuk 554
▁zo 554
itu 553
▁cops 553
▁latihan 553
▁martin 553
▁mencuba 553
▁menemukan 553
▁survive 553
▁undangundang 553
▁weapons 553
back 552
▁background 552
▁bintang 552
▁changes 552
▁ibrahim 552
▁rentetan 552
▁destroyed 551
▁effect 551
▁caught 550
▁dolar 550
▁parameter 550
▁terrible 550
edit 549
▁dasar 549
▁function 549
▁joke 549
▁padamu 549
▁pakcik 549
▁ditemui 548
▁menahan 548
▁range 548
▁tenaga 548
ped 547
▁daniel 547
▁rendah 547
▁calendar 546
▁dikatakan 546
▁horse 546
▁inginkan 546
▁menolak 546
▁proud 546
▁therein 546
▁blind 545
▁menimpa 545
▁roy 545
▁serve 545
▁promised 544
▁row 544
▁lebar 543
udah 542
▁cakera 542
▁pikir 542
▁rule 542
▁eddie 541
▁karena 541
▁lahir 541
▁towards 541
60 540
▁betapa 540
▁during 540
▁extra 540
▁manager 540
▁menghentikan 540
▁suffer 540
ification 539
▁dress 539
▁meant 539
▁pla 539
▁simbol 539
▁dragon 538
▁previous 538
▁susu 538
▁configuration 537
▁menambah 537
mbangkan 536
▁blok 536
▁court 536
▁loved 536
▁meter 536
▁needed 536
▁piawai 536
ather 535
▁corp 535
▁memandang 535
▁silakan 535
▁menutup 534
▁menyembah 534
▁ur 534
▁weapon 534
▁13 533
▁bella 533
▁berjuang 533
▁cost 533
▁righteous 533
▁seharusnya 533
▁spot 533
serv 532
▁ayuhlah 532
▁mun 532
▁pendapat 532
▁potong 532
▁sarah 532
▁ch 531
▁felt 531
▁kong 531
▁letter 531
▁mabuk 531
▁sebelumnya 531
▁standing 531
cara 530
pped 530
tiba 530
▁battle 530
▁install 530
▁owe 530
tally 529
” 529
▁bone 529
▁bot 529
▁membuatkan 529
▁pasangan 529
▁roh 529
▁weren 529
ius 528
▁berdoa 528
▁kerjakan 528
enang 527
tasi 527
▁anywhere 527
▁imagine 527
▁tang 527
▁buatkan 526
▁cup 526
▁menentang 526
▁perhatikan 526
▁agree 525
▁breath 525
▁bun 525
▁kalangan 525
▁berehat 524
▁bottom 524
▁dibuka 524
▁lewat 524
▁menukar 524
▁english 523
ngat 522
▁berk 522
▁born 522
▁mandi 522
perkara 521
▁17 521
▁angel 520
▁grace 519
▁anggota 518
▁gru 518
▁belongs 517
▁cab 517
▁flight 517
▁mengerjakan 517
▁mid 517
▁mmm 517
▁ph 517
▁sembahyang 517
▁terdahulu 517
▁update 517
▁waste 517
$ 516
▁( 516
▁agar 516
▁bunga 516
▁disokong 516
▁kemana 516
▁launch 516
▁units 516
▁vo 516
gam 515
list 515
▁saving 515
▁sekurangkurang 515
▁tea 515
oon 514
raw 514
▁bekas 514
▁muzik 513
iz 512
▁hidupkan 512
▁ms 512
▁pautan 512
ena 511
▁anggap 511
▁earn 511
▁selamalamanya 511
▁siang 511
▁situation 511
▁snow 511
▁spirit 511
kerja 510
▁info 510
culik 509
gal 509
▁dibunuh 509
▁limpah 509
▁phil 509
▁taat 509
▁description 508
▁kekasih 508
▁marry 508
▁paris 508
▁cisco 507
▁jarak 507
▁menonton 507
▁player 507
▁tandatangan 507
down 506
▁berhatihati 506
▁direct 506
▁eli 506
▁fan 506
▁freak 506
▁pantas 506
▁provide 506
▁quickly 506
▁tin 506
▁juru 505
▁menguasai 505
▁meta 505
▁rules 505
▁seru 505
right 504
ue 504
▁bermaksud 504
▁flow 504
▁pandu 504
▁termasuk 504
buang 503
▁allowed 503
▁kai 503
▁mustahil 503
▁sumpah 503
zo 502
▁malang 502
▁patient 502
kod 501
▁dilihat 501
▁guidance 501
▁reading 501
▁shin 501
▁terlambat 501
kunci 500
sebagaimana 500
▁dam 500
▁mengembalikan 500
▁mengganggu 500
▁sword 500
mission 499
▁dibenarkan 499
▁hole 499
▁sanggup 499
asihani 498
▁attention 498
▁bastard 498
▁fokus 498
▁ty 498
orang 497
top 497
▁bobby 497
▁musim 497
▁penapis 497
▁exit 496
▁iron 496
▁merciful 496
▁nine 496
▁permintaan 496
▁evening 495
▁knowing 495
▁nyah 495
▁ron 495
▁sendirian 495
▁suck 495
▁wayne 495
nn 494
▁500 494
▁evidence 494
▁kopi 494
▁trash 494
▁usa 494
ld 493
▁aras 493
▁hujung 493
▁posisi 493
▁result 493
▁sight 493
cket 492
▁gunung 492
▁johnny 492
▁perlindungan 492
bijaksana 491
▁specified 491
▁wild 491
gah 490
view 490
▁berhak 490
▁raj 490
▁umur 490
▁amount 489
▁demon 489
▁due 489
▁ganggu 489
▁jahanam 489
▁jenayah 489
▁meja 489
▁batal 488
▁equal 488
print 487
▁bahwa 487
▁disk 487
▁hambahamba 487
▁header 487
▁jen 487
api 486
▁berbahaya 486
▁busy 486
▁deserve 486
▁locked 486
▁medan 486
▁percayalah 486
▁seriously 486
▁weather 486
▁chase 485
▁definitely 485
▁scan 485
▁singh 485
graph 484
▁aneh 484
▁bakar 484
▁belong 484
▁bin 484
▁blu 484
▁bullshit 484
▁guns 484
▁lubang 484
▁merasakan 484
▁nikmat 484
▁brothers 483
▁bullet 483
▁doc 483
▁ingatkan 483
▁kalendar 483
▁kertas 483
▁mengalami 483
▁palsu 483
▁pleasure 483
▁sch 483
▁tip 483
▁diterima 482
▁kemenangan 482
▁pandai 482
▁pangkalan 482
fail 481
jung 481
pit 481
▁asing 481
▁jess 481
▁sesat 481
struct 480
▁barat 480
▁cepatlah 480
▁dare 480
▁fungsi 480
▁hill 480
▁kemari 480
▁sepuluh 480
▁therefore 480
▁uri 480
▁yourselves 480
chan 479
▁dust 479
▁fred 479
▁george 479
▁gtk 479
▁jai 479
▁torment 479
burg 478
ganti 478
get 478
nggang 478
▁accident 478
▁dikehendakinya 478
▁fill 478
▁memadam 478
▁messengers 478
▁nation 478
▁pengepala 478
▁release 478
▁sekira 478
▁separuh 478
▁tony 478
▁prince 477
▁profile 477
▁width 477
▁bayangkan 476
▁center 476
▁hukuman 476
▁kekuasaan 476
▁mengerti 476
▁menipu 476
▁automatik 475
▁dipanggil 475
— 474
▁broken 474
▁certain 474
▁lying 474
engah 473
’ 473
▁argument 473
▁ethan 473
▁replace 473
gol 472
▁berasa 472
▁mengalahkan 472
▁pengampun 472
▁terlibat 472
▁virus 472
... 471
▁apple 471
▁gather 471
▁kasut 471
▁possess 471
▁ribu 471
▁robert 471
rish 470
untuk 470
▁baginya 470
▁coffee 470
▁ketakutan 470
▁passed 470
▁pecah 470
▁penipu 470
▁ratu 470
▁shortcut 470
▁starting 470
▁writing 470
ency 469
wal 469
▁associate 469
▁bersyukur 469
▁price 469
▁trick 469
new 468
▁kelak 468
▁lines 468
▁tuanku 468
▁collect 467
▁memukul 467
▁mencapai 467
▁pray 467
▁reject 467
dict 466
▁fell 466
▁hop 466
▁hormat 466
▁jantung 466
▁leader 466
▁poli 466
▁setia 466
▁shaw 466
▁stopped 466
▁wedding 466
langkah 465
masa 465
▁dirimu 465
▁impossible 465
▁sedap 465
▁subject 465
12 464
▁bahagia 464
▁bilang 464
▁fur 464
▁hamba 464
▁killer 464
▁worried 464
▁eve 463
▁ruin 463
boleh 462
▁laman 462
▁rakyat 462
dik 461
▁language 461
▁selatan 461
▁biru 460
▁kampung 460
▁mengejar 460
▁selamanya 460
kala 459
▁cancel 459
▁dusta 459
▁hapuskan 459
▁prophet 458
▁session 458
▁tahap 458
ologi 457
ral 457
▁berfirman 457
▁dick 457
▁indian 457
▁jual 457
▁laurel 457
▁melampau 457
▁membina 457
▁petang 457
▁daku 456
▁ref 456
▁iblis 455
▁sebaikbaik 455
▁talian 455
▁witch 455
illa 454
▁cintakan 454
▁curse 454
▁dendam 454
▁design 454
▁eropah 454
▁jejak 454
▁jelaskan 454
▁lapar 454
▁rap 454
▁central 453
▁spec 453
▁club 452
▁finished 452
▁gui 452
▁kesilapan 452
▁luka 452
▁mengge 452
▁tahniah 452
alih 451
▁chat 451
▁org 451
▁sifat 451
▁sup 451
▁william 451
bby 450
▁absolutely 450
▁bug 450
▁fla 450
▁jerry 450
▁truly 450
▁usaha 450
▁besi 449
▁early 449
▁final 449
▁mengikuti 449
▁shadow 449
▁timur 449
▁tuhannya 449
▁widget 449
kel 448
▁completely 448
▁creat 448
▁kotor 448
▁memegang 448
▁pelajar 448
▁sempadan 448
▁setting 448
▁soal 448
load 447
▁aware 447
▁blame 447
▁hijau 447
▁menyi 447
▁putus 447
dir 446
hel 446
▁bond 446
▁ditimpa 446
▁flu 446
▁inform 446
▁malu 446
▁menjual 446
▁pal 446
ata 445
stock 445
▁dinding 445
▁disappear 445
▁faster 445
▁pasang 445
oc 444
▁alpha 444
▁built 444
▁cent 444
▁kemalangan 444
baru 443
▁ais 443
▁bernama 443
▁bersih 443
▁bruce 443
▁jadual 443
▁limit 443
▁menyangka 443
▁notice 443
▁situasi 443
▁tembakan 443
▁val 443
▁glass 442
▁marty 442
▁naga 442
▁trak 442
▁chinese 441
▁difference 441
▁issue 441
▁majlis 441
▁membi 441
▁pad 441
▁pemberi 441
▁ceritakan 440
▁korea 440
▁meletup 440
▁repeat 440
▁sudut 440
▁tetamu 440
▁yesterday 440
/% 439
▁berdasarkan 439
▁decided 439
▁kevin 439
▁kingdom 439
▁masalahnya 439
▁raksasa 439
▁remind 439
▁suggest 439
▁ingatan 438
▁awam 437
▁college 437
▁detective 437
▁topi 437
daya 436
well 436
▁decision 436
▁guest 436
▁kerosakan 436
▁matt 436
▁penerbangan 436
▁rose 436
▁bangsa 435
▁jujur 435
ndi 434
▁alice 434
▁dying 434
▁jimmy 434
▁kap 434
▁kemungkinan 434
▁third 434
▁tommy 434
▁criminal 433
▁frame 433
▁mengarut 433
▁spread 433
book 432
▁curi 432
▁lapan 432
▁manis 432
ui 431
▁dihantar 431
▁heading 431
▁lut 431
▁shop 431
▁tema 431
▁tough 431
▁lucu 430
▁mention 430
▁perlahan 430
▁sembunyikan 430
▁tandatanda 430
laksana 429
uck 429
▁disimpan 429
▁hungry 429
▁kor 429
▁powerful 429
▁preview 429
▁serang 429
board 428
henti 428
ock 428
▁devil 428
▁dikenali 428
▁habiskan 428
▁heavy 428
mark 427
▁congratulations 427
▁europe 427
▁hidden 427
▁keduanya 427
▁patah 427
▁dete 426
▁duty 426
▁film 426
▁lin 426
▁mankind 426
▁perancis 426
▁receive 426
▁serahkan 426
▁holding 425
▁http 425
▁lalai 425
▁standard 425
▁bull 424
▁communi 424
▁ny 424
▁pon 424
like 423
▁hadir 423
▁hong 423
▁scott 423
ambung 422
box 422
▁bangga 422
▁folk 422
▁jangka 422
▁mengenali 422
▁race 422
bunyi 421
▁mate 421
▁teka 421
ball 420
wood 420
▁bah 420
▁beyon 420
▁brand 420
▁monitor 420
▁richard 420
▁salin 420
▁terbunuh 420
▁tight 420
▁felicity 419
▁obey 419
▁suspect 419
▁archive 418
▁church 418
▁cia 418
▁dreams 418
▁lake 418
▁skin 418
▁strike 418
apa 417
▁babi 417
▁keadaannya 417
▁menghubungi 417
▁menyesal 417
▁sebaliknya 417
▁sialan 417
▁spent 417
cari 416
▁ditangkap 416
▁menyakiti 416
▁neck 416
▁pahala 416
▁tekan 416
▁tulang 416
▁anakku 415
▁bendabenda 415
▁diamond 415
▁katalaluan 415
▁rekod 415
▁supported 415
cam 414
▁apostle 414
▁dada 414
▁height 414
▁ketiga 414
▁lies 414
▁menentukan 414
▁mini 414
▁panah 414
▁walau 414
pada 413
▁contoh 413
▁fer 413
▁haiwan 413
▁justice 413
▁kaumnya 413
▁mass 413
▁sum 413
iko 412
▁awesome 412
▁disabled 412
▁matikan 412
▁mempercayai 412
▁pahlawan 412
room 411
▁ampun 411
▁laju 411
▁piss 411
▁smile 411
hor 410
▁denganmu 410
▁memeriksa 410
▁mm 410
▁mommy 410
▁raw 410
▁returned 410
▁sitting 410
luk 409
rampas 409
▁begitulah 409
▁bridge 409
▁entry 409
▁example 409
▁led 409
▁menyuruh 409
▁spider 409
▁tekanan 409
▁unbelievers 409
▁asas 408
▁joy 408
▁menyentuh 408
▁paid 408
▁seal 408
▁sk 408
shot 407
▁clothes 407
▁cooper 407
▁total 407
abad 406
▁bir 406
▁lanjut 406
▁penjaga 406
▁pil 406
▁sambung 406
▁transfer 406
▁valid 406
elect 405
▁clo 405
▁drunk 405
▁genius 405
▁helo 405
▁ilmu 405
▁immediately 405
▁rezeki 405
ob 404
▁hereafter 404
▁jean 404
▁kelajuan 404
▁menghilang 404
▁raise 404
▁reg 404
▁vol 404
▁wing 404
pek 403
▁authentication 403
▁corner 403
▁crew 403
▁dipaparkan 403
▁ejen 403
▁jet 403
▁kesini 403
▁rapat 403
▁wonderful 403
< 402
▁jason 402
▁seronok 402
ggle 401
point 401
▁author 401
▁creature 401
▁driver 401
▁edge 401
▁lancar 401
▁motherfucker 401
▁organ 401
▁sarjan 401
▁sebanyak 401
gree 400
titude 400
▁backup 400
▁memutuskan 400
▁menghabiskan 400
▁spoke 400
▁volume 400
▁memo 399
▁original 399
▁sepenuhnya 399
▁decide 398
▁html 398
▁khas 398
▁menyerah 398
▁preferences 398
▁signature 398
▁tangga 398
▁yi 398
а 397
▁22 397
▁arch 397
▁jepun 397
▁named 397
▁root 397
▁{0} 397
coming 396
▁askar 396
▁belas 396
▁direction 396
▁dun 396
▁lambat 396
▁lembu 396
▁mexico 396
▁pakar 396
▁puak 396
ile 395
suka 395
▁akibat 395
▁ayam 395
▁bow 395
▁difficult 395
▁fuckin 395
▁german 395
▁hung 395
▁invite 395
▁pertanyaan 395
▁worst 395
▁written 395
comment 394
wise 394
▁astray 394
▁cash 394
▁client 394
▁crap 394
▁forgot 394
▁hasn 394
▁lang 394
▁military 394
▁musnahkan 394
▁sombong 394
▁spring 394
zu 393
▁anaknya 393
▁border 393
▁mangsa 393
▁menghadapi 393
▁sekeliling 393
▁sihat 393
▁stuck 393
boy 392
juta 392
saya 392
town 392
▁cloud 392
▁epson 392
▁guided 392
▁henry 392
▁katanya 392
▁peperangan 392
▁pertandingan 392
▁tired 392
field 391
▁afrika 391
▁director 391
▁membawanya 391
▁profil 391
▁toggle 391
80 390
▁brad 390
cetak 389
▁berperang 389
▁breathe 389
▁depend 389
▁favour 389
▁owner 389
▁pesanan 389
▁raised 389
▁santa 389
▁settle 389
▁siasat 389
▁unsur 389
▁iris 388
▁merancang 388
▁mount 388
▁pee 388
▁storm 388
▁tunjuk 388
▁favorite 387
▁impian 387
▁kadangkadang 387
▁lower 387
▁menikmati 387
▁menyelesaikan 387
▁patch 387
▁peguam 387
▁sake 387
▁silap 387
iya 386
▁alarm 386
▁membesar 386
▁mengenainya 386
▁pergerakan 386
▁required 386
rik 385
▁hearing 385
▁ignore 385
▁mum 385
▁sesi 385
▁walking 385
mata 384
▁60 384
▁aunt 384
▁boot 384
▁dibawa 384
▁inggeris 384
▁namun 384
▁thomas 384
▁yusuf 384
▁africa 383
▁bertuah 383
▁dgn 383
▁membe 383
▁pantai 383
▁rasakan 383
▁rip 383
▁sokongan 383
▁sync 383
40 382
tambah 382
▁active 382
▁admit 382
▁below 382
▁corak 382
▁crash 382
▁darling 382
▁exc 382
▁pencuri 382
▁sediakan 382
av 381
▁common 381
▁perut 381
▁religion 381
▁rob 381
▁skip 381
▁squ 381
▁tower 381
▁halang 380
▁insert 380
▁memburu 380
▁menghancurkan 380
▁temui 380
▁berikutnya 379
▁dibaca 379
▁fon 379
▁lekas 379
▁mengalir 379
▁moved 379
▁punish 379
▁sekutu 379
cker 378
▁according 378
▁berikut 378
▁doug 378
▁lindungi 378
▁madam 378
▁purpose 378
▁sematamata 378
▁sending 378
▁sergeant 378
▁spell 378
▁tingkap 378
mail 377
▁bersembunyi 377
▁crack 377
▁honest 377
▁jail 377
▁kejam 377
▁manual 377
▁penyakit 377
▁pilot 377
▁zero 377
hand 376
ization 376
▁batman 376
▁bernafas 376
▁kenyataan 376
▁masuklah 376
▁menegak 376
▁menyatakan 376
▁minyak 376
▁pattern 376
▁persembahan 376
▁section 376
▁seks 376
▁terkenal 376
▁yep 376
meter 375
▁aksi 375
▁appreciate 375
▁helped 375
▁kerusi 375
▁memapar 375
▁menteri 375
▁menyebut 375
▁mountain 375
▁nasihat 375
▁specify 375
▁wealth 375
70 374
nilai 374
▁anna 374
▁expected 374
▁hiding 374
▁mengetahuinya 374
▁paksa 374
▁punggung 374
▁%2 373
▁dengarkan 373
▁menyeksa 373
▁onto 373
▁training 373
sama 372
▁batas 372
▁dijangka 372
▁dinyatakan 372
▁opened 372
▁script 372
▁sehari 372
▁split 372
▁carian 371
▁diambil 371
▁excellen 371
▁kelakar 371
▁revelation 371
▁suppose 371
▁attribute 370
▁bought 370
▁dijumpai 370
▁expression 370
▁flag 370
▁miskin 370
▁sembah 370
# 369
gging 369
▁danger 369
▁itself 369
▁lapangan 369
▁otherwise 369
▁bergantung 368
▁berterima 368
▁cium 368
▁girlfriend 368
▁invest 368
▁leher 368
▁menerangkan 368
▁thor 368
▁ticket 368
▁zaman 368
tidak 367
▁australia 367
▁configure 367
▁further 367
▁gl 367
▁lurus 367
▁berbincang 366
▁forgiveness 366
▁jalankan 366
▁letupan 366
▁mendapati 366
▁wire 366
hold 365
▁berbohong 365
▁berhasil 365
▁cute 365
▁mayor 365
▁property 365
▁resource 365
▁arkib 364
▁department 364
▁firm 364
▁french 364
▁izin 364
▁received 364
▁salam 364
30 363
▁dai 363
▁hall 363
▁marriage 363
▁sengaja 363
text 362
▁angry 362
▁chicken 362
▁flying 362
▁gotham 362
▁innocent 362
▁islam 362
▁putar 362
▁qur 362
▁sya 362
cah 361
▁emel 361
▁ganda 361
▁kedatangan 361
▁menjumpai 361
▁pisau 361
▁roof 361
▁speaking 361
▁stesen 361
▁sweetheart 361
▁tape 361
▁berdosa 360
▁bigger 360
▁establish 360
▁export 360
▁kasihan 360
▁peristiwa 360
▁regular 360
yah 359
▁fate 359
▁halo 359
▁increase 359
▁kirakira 359
▁nuh 359
▁pusing 359
▁screw 359
layar 358
place 358
▁elok 358
▁foto 358
▁jordan 358
▁listening 358
▁makhlukmakhluk 358
▁mesyuarat 358
▁pemandu 358
▁seni 358
daftar 357
▁00 357
▁caranya 357
▁gordon 357
▁membersihkan 357
▁merayu 357
▁pixma 357
▁plain 357
▁student 357
uri 356
▁download 356
▁gardens 356
▁palm 356
▁secepat 356
▁sedih 356
▁tear 356
▁terkejut 356
▁alihkan 355
▁appointment 355
▁lap 355
▁motor 355
▁properties 355
▁puteri 355
▁semangat 355
▁stefan 355
▁takdir 355
bertanggungjawab 354
▁closed 354
▁daerah 354
▁disediakan 354
▁fruit 354
▁kecemasan 354
▁sahabat 354
import 353
terperangkap 353
▁abraham 353
▁bersiap 353
▁proof 353
▁teh 353
giving 352
▁bab 352
▁berbagai 352
▁kepercayaan 352
▁pemilik 352
▁scene 352
▁shift 352
▁smoke 352
▁tikus 352
▁90 351
▁menghidupkan 351
▁painful 351
▁pete 351
▁sering 351
▁servants 351
enggan 350
▁drugs 350
▁membuktikan 350
▁rahul 350
date 349
pass 349
▁comm 349
▁damon 349
▁giliran 349
▁haram 349
▁melanggar 349
▁pekerja 349
▁tiket 349
▁“% 349
ability 348
▁beginning 348
▁eva 348
▁fucked 348
▁memastikan 348
▁prefer 348
▁specific 348
tract 347
▁kha 347
▁membakar 347
▁menghapuskan 347
▁sacrifice 347
▁tn 347
align 346
▁acara 346
▁berlatih 346
▁bound 346
▁civil 346
▁horn 346
▁jauhkan 346
▁kate 346
▁menjelaskan 346
▁terbakar 346
qua 345
semua 345
word 345
▁berharga 345
▁brian 345
▁dicipta 345
▁exists 345
▁gereja 345
▁hah 345
▁keadilan 345
▁lovely 345
▁maklum 345
▁memohon 345
▁telinga 345
▁tersembunyi 345
▁twice 345
house 344
▁cache 344
▁mendapatkannya 344
▁mengutus 344
▁pelanggan 344
▁everywhere 343
▁memakan 343
▁mighty 343
▁pelindung 343
▁pengesahan 343
▁recognize 343
▁terbesar 343
▁wizard 343
cap 342
▁barr 342
▁berlawan 342
▁christmas 342
▁joseph 342
▁khan 342
▁taman 342
dengar 341
selagi 341
▁berlari 341
▁driving 341
▁geng 341
▁keturunan 341
▁loose 341
▁memaksa 341
▁monkey 341
▁selesa 341
▁seluar 341
▁creation 340
▁scale 340
▁score 340
▁square 340
▁tie 340
▁workspace 340
link 339
▁akses 339
▁bencana 339
▁bother 339
▁database 339
▁eric 339
▁exchange 339
▁isterinya 339
▁kenderaan 339
▁maya 339
▁menyedari 339
▁menyokong 339
▁mill 339
▁yellow 339
char 338
▁details 338
▁eating 338
▁eggs 338
▁kucing 338
▁mengesan 338
▁menjerit 338
▁menyediakan 338
▁national 338
▁sau 338
▁ski 338
▁stark 338
▁terperi 338
▁tukang 338
▁bust 337
▁cow 337
▁dvd 337
▁gua 337
▁loser 337
▁successful 337
ism 336
▁bawakan 336
▁bunch 336
▁interesting 336
▁menderita 336
▁praise 336
▁sejauh 336
▁visual 336
▁volum 336
what 335
▁appointed 335
▁campur 335
▁corrupt 335
▁dumb 335
▁inci 335
▁loading 335
▁mountains 335
▁mouse 335
▁pang 335
▁printer 335
▁snap 335
▁washington 335
▁burning 334
▁disbelievers 334
▁interested 334
▁kayu 334
▁menyeru 334
▁ourselves 334
▁pair 334
▁ryan 334
á 333
▁attempt 333
▁defend 333
▁hook 333
▁melaksanakan 333
▁merosakkan 333
▁pemimpin 333
▁pig 333
▁rachel 333
▁sec 333
▁ternak 333
▁wolf 333
▁engine 332
▁fresh 332
▁memasuki 332
▁multi 332
▁paus 332
duga 331
▁bright 331
▁official 331
▁resurrection 331
▁study 331
▁teacher 331
▁airport 330
▁bookmark 330
▁cincin 330
▁conversation 330
▁diriku 330
▁ditembak 330
▁maksimum 330
▁response 330
▁rupa 330
▁sayangkan 330
▁zi 330
́ 329
▁bertarung 329
▁biasanya 329
▁boyfriend 329
▁daya 329
▁kecewa 329
▁risiko 329
▁soft 329
▁wave 329
▁brown 328
▁charles 328
▁clock 328
▁jon 328
▁rusia 328
▁shame 328
▁shu 328
▁vampire 328
▁wound 328
fil 327
ford 327
keterangan 327
▁angkasa 327
▁betray 327
▁canada 327
▁ditulis 327
▁greater 327
▁hakim 327
▁kejutan 327
▁menyaksikan 327
▁pendek 327
▁satan 327
emba 326
▁develop 326
▁edward 326
▁menelefon 326
▁online 326
▁progress 326
▁qui 326
▁separate 326
▁terfikir 326
this 325
▁cina 325
▁dollars 325
▁drug 325
▁gdm 325
▁maknanya 325
▁puluh 325
▁regard 325
▁route 325
▁scream 325
▁wah 325
bayang 324
▁berhubung 324
▁denied 324
▁keseluruhan 324
▁kung 324
▁menyukai 324
▁prepared 324
▁reminder 324
pad 323
reference 323
▁> 323
▁berkaitan 323
▁korang 323
▁menyertai 323
▁penyu 323
▁profesor 323
▁vertical 323
▁pipe 322
▁slave 322
▁warm 322
▁berhutang 321
▁brave 321
▁commit 321
▁flat 321
▁huruf 321
▁measure 321
▁sang 321
▁toolbar 321
format 320
▁bayaran 320
▁carter 320
▁earlier 320
▁kegemaran 320
▁lori 320
▁mia 320
▁patung 320
▁pemacu 320
▁princess 320
▁rakaman 320
▁refuse 320
▁require 320
▁russian 320
▁safety 320
▁umum 320
oid 319
version 319
▁carrie 319
▁emergency 319
▁england 319
▁faedah 319
▁fake 319
▁izinkan 319
▁slot 319
▁tongkat 319
▁topeng 319
▁trade 319
▁beast 318
▁chair 318
▁chen 318
▁clearly 318
▁convert 318
▁hack 318
▁hancur 318
▁maggie 318
▁menyeronokkan 318
▁mp 318
▁shape 318
tertarik 317
▁bloody 317
▁gray 317
▁male 317
▁meningkat 317
▁pressure 317
▁$1 316
▁approach 316
▁currently 316
▁del 316
▁dewasa 316
▁kemampuan 316
▁kesenangan 316
▁pembantu 316
▁perangkap 316
▁restore 316
▁seminggu 316
▁shooting 316
cr 315
rumah 315
▁connor 315
▁experience 315
▁kesusahan 315
▁mmhmm 315
▁putting 315
▁rise 315
▁tech 315
▁80 314
▁arab 314
▁bertukar 314
▁kosongkan 314
▁minimum 314
▁warrior 314
pah 313
where 313
▁199 313
▁chosen 313
▁defeat 313
▁dump 313
▁jar 313
▁malcolm 313
lumpuhkan 312
▁arthur 312
▁bincang 312
▁comment 312
▁dipercayai 312
▁gain 312
▁guardian 312
▁istana 312
▁jabatan 312
▁menyembunyikan 312
▁nafas 312
▁pohon 312
▁tapak 312
▁chap 311
▁claim 311
▁entah 311
▁invent 311
▁makcik 311
▁mendatangkan 311
▁mix 311
▁percent 311
▁pintasan 311
▁ringkas 311
▁rub 311
▁rugi 311
▁senyum 311
▁stu 311
▁trace 311
lintas 310
▁garden 310
▁initial 310
▁interest 310
▁minister 310
▁tank 310
▁benefit 309
▁cam 309
▁damage 309
▁darkness 309
▁drpd 309
▁express 309
▁huge 309
▁marv 309
▁mil 309
▁pencetak 309
▁pinjam 309
▁stole 309
▁tanaman 309
jagajaga 308
kumpulan 308
quot 308
ridge 308
▁dirty 308
▁kehendaki 308
▁closer 307
▁jemput 307
▁keberanian 307
▁kesempatan 307
▁lompat 307
▁lunch 307
▁maju 307
▁menyakitkan 307
▁menyanyi 307
folder 306
▁behold 306
▁dipasang 306
▁elena 306
▁execute 306
▁individu 306
▁mohon 306
▁regret 306
▁telur 306
neath 305
▁23 305
▁determine 305
▁ditutup 305
▁penjahat 305
▁tiger 305
bag 304
jadi 304
nggal 304
simpan 304
▁beach 304
▁distance 304
▁female 304
▁ikatan 304
▁josh 304
▁krist 304
▁necessary 304
▁peringkat 304
▁samasama 304
▁tolak 304
color 303
gambar 303
over 303
▁boom 303
▁kemas 303
▁micro 303
▁odd 303
▁pemerintah 303
▁pusingan 303
▁bringing 302
▁cheat 302
▁diluar 302
▁dwell 302
▁jatuhkan 302
▁mur 302
▁najis 302
▁sheriff 302
▁tahi 302
berg 301
data 301
dusta 301
▁bersendirian 301
▁emp 301
▁keretapi 301
▁penggera 301
▁salinan 301
▁sulit 301
▁lantai 300
▁memasukkan 300
▁parse 300
▁pertempuran 300
▁spare 300
lempar 299
▁bersabar 299
▁dollar 299
▁installed 299
▁mendarat 299
▁sail 299
▁simpl 299
▁software 299
form 298
▁gimp 298
▁include 298
▁jay 298
▁kacang 298
▁kegelapan 298
▁knee 298
▁mahkamah 298
▁musyrik 298
▁pesan 298
▁plat 298
▁repent 298
▁siasia 298
▁silver 298
▁trek 298
lebih 297
▁freedom 297
▁lion 297
▁memelihara 297
▁opening 297
▁undo 297
belakang 296
var 296
▁chip 296
▁ekor 296
▁kahwin 296
▁kedalam 296
▁kelab 296
▁kesesatan 296
▁melimpah 296
▁method 296
▁pengajaran 296
▁pulih 296
▁punch 296
▁rescue 296
▁trap 296
buka 295
sky 295
▁expand 295
▁kole 295
▁login 295
▁module 295
▁patrick 295
▁pesta 295
▁pretend 295
▁utk 295
born 294
▁advance 294
▁beramal 294
▁dibawah 294
▁dikembalikan 294
▁fixed 294
▁jahannam 294
▁lautan 294
▁license 294
▁perkhidmatan 294
▁pie 294
▁spin 294
▁unexpected 294
▁yea 294
gang 293
▁guilty 293
▁menara 293
▁pizza 293
▁relationship 293
▁victim 293
jana 292
tiga 292
▁berbicara 292
▁dijanjikan 292
▁jerman 292
▁operator 292
▁potter 292
▁ribut 292
▁wine 292
buat 291
▁colonel 291
▁destination 291
▁false 291
▁gps 291
▁israel 291
▁mengingatkan 291
▁nature 291
▁putera 291
▁skill 291
▁tumbuh 291
▁walker 291
▁300 290
▁attend 290
▁bersihkan 290
▁bertahuntahun 290
▁bio 290
▁energy 290
▁gnu 290
▁held 290
▁kering 290
▁lembut 290
▁pelacur 290
▁senior 290
▁speech 290
▁stage 290
▁teddy 290
▁terpe 290
▁woo 290
phone 289
▁affect 289
▁hantarkan 289
▁pharaoh 289
▁plot 289
▁simpanan 289
▁unjust 289
akhir 288
pasang 288
▁automatically 288
▁chuck 288
▁jones 288
▁lance 288
▁manifest 288
▁pertemuan 288
▁severe 288
open 287
▁alien 287
▁berkongsi 287
▁budakbudak 287
▁giant 287
▁paip 287
▁pelbagai 287
▁peratus 287
▁poison 287
▁wira 287
crypt 286
dalam 286
ertanyatanya 286
▁album 286
▁cock 286
▁hawa 286
▁maximum 286
▁menganggap 286
▁menghormati 286
▁mengingati 286
▁rindukan 286
▁scroll 286
▁wrap 286
app 285
eneral 285
night 285
rkembang 285
with 285
▁breach 285
▁gay 285
▁leon 285
▁membolehkan 285
▁pemberian 285
▁penggunaan 285
▁ungkapan 285
▁bala 284
▁dilahirkan 284
▁fought 284
▁lesson 284
▁luas 284
▁pakistan 284
▁percuma 284
▁prepare 284
▁tahanan 284
▁adjust 283
▁coordinate 283
▁emily 283
▁ganja 283
▁membenarkan 283
▁payah 283
▁plus 283
▁pound 283
▁scare 283
▁sesama 283
▁tampak 283
▁upstairs 283
▁bertambah 282
▁blast 282
▁debug 282
▁evan 282
▁kaitan 282
▁ketawa 282
▁memusnahkan 282
▁menyukainya 282
▁ocean 282
▁perak 282
▁prem 282
▁staff 282
▁threat 282
▁victory 282
▁vision 282
ack 281
hadapan 281
▁affair 281
▁berserah 281
▁jackson 281
▁kara 281
▁melupakan 281
▁mengharapkan 281
▁teknologi 281
о 280
▁authority 280
▁dimulakan 280
▁discuss 280
▁keizinan 280
▁ketahuilah 280
▁kiraan 280
▁mengenal 280
▁menyala 280
▁wheel 280
▁caroline 279
▁global 279
▁liu 279
▁loud 279
▁mengadakan 279
▁produce 279
dukacita 278
gress 278
▁disable 278
▁discover 278
▁enemies 278
▁noble 278
▁paradise 278
▁prevent 278
▁segi 278
▁sleeping 278
▁tenggelam 278
▁weight 278
rama 277
▁albert 277
▁british 277
▁climb 277
▁fox 277
▁luke 277
▁murph 277
▁penghantar 277
▁pintar 277
▁random 277
▁sav 277
even 276
▁argumen 276
▁cuaca 276
▁digital 276
▁float 276
▁grave 276
▁involved 276
▁jacob 276
▁kesudahan 276
▁lieutenant 276
▁lukisan 276
▁pengganas 276
▁pirate 276
▁provided 276
▁reka 276
▁setempat 276
▁shake 276
▁stronger 276
ekadar 275
konfigur 275
▁apologize 275
▁berbual 275
▁chastisement 275
▁honour 275
▁mengira 275
▁paparkan 275
▁virgin 275
code 274
▁bekalan 274
▁carol 274
▁committ 274
▁lenyap 274
▁perubatan 274
▁sememangnya 274
▁setahun 274
▁sweetie 274
▁wu 274
space 273
▁april 273
▁avoid 273
▁chest 273
▁entahlah 273
▁horizontal 273
▁lucy 273
▁perbualan 273
▁pertarungan 273
▁practice 273
▁protocol 273
▁success 273
▁walter 273
bentuk 272
ember 272
though 272
▁cermin 272
▁enjin 272
▁judgment 272
▁pengendali 272
▁pooja 272
▁seize 272
connect 271
▁pelajaran 271
▁penjenayah 271
▁simon 271
▁skala 271
▁strip 271
15 270
▁buru 270
▁california 270
▁francis 270
▁hercules 270
▁kadar 270
▁kalahkan 270
▁mematikan 270
▁perisian 270
▁raid 270
▁sembilan 270
▁senator 270
▁site 270
▁smith 270
▁styl 270
▁wil 270
fully 269
▁ahh 269
▁basic 269
▁diamlah 269
▁forbidden 269
▁generation 269
▁legend 269
▁mengampun 269
▁monyet 269
talian 268
▁angle 268
▁arrange 268
▁berlian 268
▁capture 268
▁chang 268
▁domain 268
▁eksport 268
▁emak 268
▁golden 268
▁memotong 268
▁obviously 268
▁pertahanan 268
awak 267
know 267
▁bernilai 267
▁brush 267
▁engage 267
▁kilang 267
▁parker 267
▁storie 267
▁usahakan 267
kejap 266
state 266
unit 266
uru 266
▁abandon 266
▁filename 266
▁fulfill 266
▁lengkap 266
▁lincoln 266
▁membinasakan 266
▁period 266
▁rate 266
▁revenge 266
16 265
config 265
izing 265
tutup 265
▁ancient 265
▁berulang 265
▁besok 265
▁fitz 265
▁fri 265
▁health 265
▁observ 265
▁trigger 265
▁ucapkan 265
cerita 264
hood 264
lima 264
tanding 264
▁bumbung 264
▁excite 264
▁fellow 264
▁filled 264
▁jambatan 264
▁journey 264
▁lawyer 264
▁louis 264
▁nafsu 264
▁penghormatan 264
▁recite 264
▁responsible 264
▁robb 264
▁sold 264
▁throne 264
▁uhhuh 264
▁ancaman 263
▁berasal 263
▁commander 263
▁grandma 263
▁kongsi 263
▁cheese 262
▁connected 262
▁dry 262
▁grade 262
▁kaca 262
▁katil 262
▁teeth 262
▁castle 261
▁cave 261
▁ketat 261
▁kolum 261
▁latin 261
▁lift 261
▁mendalam 261
▁menguji 261
▁penerima 261
▁rename 261
▁sepadan 261
▁sharp 261
▁tunai 261
▁45 260
▁apartment 260
▁arrived 260
▁assume 260
▁bersatu 260
▁highlight 260
▁hp 260
▁kurasa 260
▁ucapan 260
kandung 259
raya 259
▁70 259
▁attach 259
▁confus 259
▁contract 259
▁introduce 259
▁kehormatan 259
▁multiple 259
▁pagar 259
▁plent 259
▁prisoner 259
▁rebel 259
▁tail 259
▁twenty 259
▁visible 259
▁21 258
▁32 258
▁advice 258
▁atribut 258
▁bestow 258
▁bon 258
▁delay 258
▁ditentukan 258
▁fella 258
▁glory 258
▁hidung 258
▁kebebasan 258
▁mengesahkan 258
▁peralatan 258
▁sherman 258
▁smurf 258
▁threaten 258
datangi 257
usually 257
▁bilabila 257
▁mengerikan 257
▁sembunyi 257
help 256
▁barangbarang 256
▁bateri 256
▁bersetuju 256
▁bonnie 256
▁descend 256
▁hadapi 256
▁kacau 256
▁mengaku 256
▁miliki 256
▁nervous 256
▁starling 256
grad 255
mudahan 255
▁detect 255
▁dilaksanakan 255
▁menyenangkan 255
▁penat 255
▁stream 255
▁+ 254
▁bangkit 254
▁battery 254
▁browser 254
▁hunter 254
▁internal 254
▁protection 254
▁siapkan 254
▁trail 254
▁transport 254
▁undur 254
beratan 253
▁babe 253
▁grateful 253
▁higher 253
▁knife 253
▁kru 253
▁lengan 253
▁makin 253
▁memindah 253
▁pengecut 253
▁puji 253
▁sekalipun 253
▁skrip 253
▁terutama 253
kira 252
masuk 252
rbanding 252
▁beruang 252
▁bidang 252
▁dl 252
▁drown 252
▁gear 252
▁intend 252
▁interface 252
▁keinginan 252
▁membela 252
▁memperbaiki 252
▁prim 252
▁rasmi 252
▁snake 252
▁tongue 252
ej 251
image 251
í 251
▁amalamal 251
▁chain 251
▁desert 251
▁japanese 251
▁kitchen 251
▁meliputi 251
▁mengakui 251
▁region 251
▁serigala 251
▁terrorist 251
▁traffic 251
▁wahyu 251
ganggu 250
lash 250
lepas 250
pelihara 250
ubuntu 250
▁extreme 250
▁kuning 250
▁majesty 250
▁penyelamat 250
▁perbezaan 250
▁pesakit 250
▁sujud 250
▁wide 250
▁diserang 249
▁kolonel 249
▁mengejut 249
▁planning 249
▁priya 249
▁riley 249
▁ruangkerja 249
▁seksi 249
▁senyap 249
▁ular 249
▁aaron 248
▁apply 248
▁barbara 248
▁beralih 248
▁clar 248
▁delta 248
▁dikena 248
▁extract 248
▁fully 248
▁identiti 248
▁index 248
▁jalur 248
▁komen 248
▁market 248
▁melayan 248
▁mengelak 248
▁milk 248
▁sekatan 248
binatang 247
ology 247
sufficient 247
▁== 247
▁annie 247
▁believ 247
▁bergembira 247
▁bersikap 247
▁bottle 247
▁greet 247
▁lega 247
▁mainmain 247
jalan 246
tunjukkan 246
▁balance 246
▁dapur 246
▁darat 246
▁dosadosa 246
▁drove 246
▁gradient 246
▁memalukan 246
▁perlawanan 246
▁rantai 246
▁raya 246
▁research 246
▁retriev 246
▁russia 246
▁stabil 246
▁xml 246
uangkan 245
▁activate 245
▁afternoon 245
▁bendera 245
▁bite 245
▁cage 245
▁cake 245
▁clay 245
▁deck 245
▁elektrik 245
▁henti 245
▁menyampaikan 245
▁modul 245
▁pocket 245
▁recompense 245
▁suddenly 245
[ 244
▁champion 244
▁christian 244
▁credit 244
▁ldap 244
▁mempertahankan 244
▁natural 244
▁pardon 244
▁transgress 244
direct 243
world 243
▁berenang 243
▁bolt 243
▁breakfast 243
▁bulat 243
▁exalt 243
▁keyring 243
▁loaded 243
▁memenuhi 243
▁mengirim 243
▁sale 243
defined 242
mode 242
saat 242
▁melompat 242
▁piksel 242
▁schedule 242
▁senapang 242
▁treasure 242
▁upset 242
▁vic 242
berumur 241
dahulu 241
▁billion 241
▁memimpin 241
▁rupanya 241
▁submit 241
▁agreed 240
▁berkumpul 240
▁ghaib 240
▁hank 240
▁interview 240
▁library 240
▁medical 240
▁memperoleh 240
▁menjemput 240
▁paw 240
▁pemburu 240
▁protokol 240
▁surround 240
▁tawaran 240
▁trial 240
▁understood 240
▁vehicle 240
▁wicked 240
▁48 239
▁abort 239
▁bait 239
▁chef 239
▁emotion 239
▁mewujudkan 239
▁nikmati 239
▁pemenang 239
▁penolong 239
▁persatu 239
▁pool 239
▁possibl 239
▁roti 239
▁tidings 239
▁variable 239
espite 238
ramai 238
▁bravo 238
▁dimensi 238
▁hancurkan 238
▁kaedah 238
▁kehendak 238
▁kejayaan 238
▁merlyn 238
▁opportunity 238
▁tick 238
▁verse 238
▁zone 238
stone 237
▁mengagum 237
▁menyedihkan 237
▁mirror 237
▁orphan 237
▁penny 237
▁science 237
▁sikap 237
▁terowong 237
▁truthful 237
▁tunnel 237
dapat 236
▁bertaubat 236
▁buzz 236
▁cadangan 236
▁chose 236
▁flip 236
▁france 236
▁mahal 236
▁margin 236
▁menanggung 236
▁menghukum 236
▁sejati 236
▁series 236
▁wives 236
jaya 235
verse 235
▁berseronok 235
▁birth 235
▁degrees 235
▁gaji 235
▁gemuk 235
▁♫ 235
е 234
▁artist 234
▁challenge 234
▁diubah 234
▁enabled 234
▁helikopter 234
▁insane 234
▁lisa 234
▁mobil 234
▁pengarah 234
▁scripture 234
▁summer 234
▁tradition 234
kawan 233
umat 233
▁28 233
▁alert 233
▁bergaduh 233
▁berpindah 233
▁buffer 233
▁ciriciri 233
▁perlahanlahan 233
▁politik 233
▁provision 233
▁relative 233
▁restart 233
▁sembuh 233
▁tebusan 233
▁warner 233
▁worm 233
▁35 232
▁beauty 232
▁berlalu 232
▁flesh 232
▁gedit 232
▁locate 232
▁menghina 232
▁rush 232
▁sebulan 232
▁sport 232
▁stolen 232
▁suai 232
▁yatim 232
kuasa 231
proses 231
salin 231
▁bigge 231
▁blessing 231
▁dipenuhi 231
▁dpi 231
▁forgotten 231
▁hutang 231
▁kesana 231
▁kontrak 231
▁menyesatkan 231
▁pemindahan 231
▁rakanrakan 231
▁solve 231
▁terkena 231
▁wrote 231
balas 230
▁anjali 230
▁berkesan 230
▁completed 230
▁engineer 230
▁flee 230
▁restoran 230
▁robin 230
▁swim 230
▁teleport 230
▁timbul 230
▁yard 230
keluar 229
perempuan 229
▁berpurapura 229
▁convince 229
▁elder 229
▁idol 229
▁inspector 229
▁isabel 229
▁keamanan 229
▁korban 229
▁lajur 229
▁makmal 229
▁mengawasi 229
▁menghendaki 229
▁menyerahkan 229
▁refuge 229
▁sesetengah 229
▁seumur 229
▁slide 229
▁temple 229
away 228
▁darjah 228
▁dijadikan 228
▁dikeluarkan 228
▁droppe 228
▁kemasukan 228
▁molly 228
▁noise 228
▁several 228
▁suspek 228
bber 227
▁ayat 227
▁bisnes 227
▁bounty 227
▁circle 227
▁coklat 227
▁crying 227
▁especial 227
▁failure 227
▁kasar 227
▁kedengaran 227
▁laksanakan 227
▁lidah 227
▁menawarkan 227
▁pablo 227
▁pelabu 227
▁pemasangan 227
▁royal 227
▁shirt 227
▁syarat 227
▁template 227
▁terlebih 227
▁vegeta 227
▁wal 227
:30 226
anggap 226
▁encoding 226
▁hug 226
▁industri 226
▁menghargai 226
▁mood 226
▁offline 226
▁pacific 226
▁restaurant 226
▁somehow 226
▁thief 226
▁threw 226
▁wrongdoers 226
47 225
selamat 225
▁bermimpi 225
▁cursor 225
▁drama 225
▁freeze 225
▁impressi 225
▁isteriisteri 225
▁kehabisan 225
▁occurred 225
▁represent 225
▁sample 225
▁sesekali 225
▁ugh 225
▁vpn 225
ibility 224
rcuti 224
▁alfred 224
▁bekerjasama 224
▁crowd 224
▁dipadam 224
▁disebut 224
▁families 224
▁honestly 224
▁mister 224
▁putuskan 224
▁ridiculous 224
▁runtuh 224
jenis 223
▁intelligence 223
▁marcus 223
▁melahirkan 223
▁mengatasi 223
▁moral 223
▁palette 223
▁pasifik 223
▁pelayar 223
▁presence 223
▁shane 223
▁surrender 223
some 222
▁arrive 222
▁awful 222
▁berambus 222
▁bike 222
▁corn 222
▁extension 222
▁integer 222
▁kepunyaan 222
▁kubur 222
▁length 222
▁miracle 222
▁pengalaman 222
▁raguragu 222
▁911 221
▁blank 221
▁capai 221
▁diantara 221
▁ditahan 221
▁herself 221
▁hoo 221
▁kelebihan 221
▁kursor 221
▁parent 221
▁peluk 221
▁puanpuan 221
▁respond 221
▁sugar 221
▁susan 221
▁bathroom 220
▁berlepas 220
▁bourne 220
▁dawn 220
▁kekurangan 220
▁peserta 220
▁psycho 220
▁quinn 220
▁rehat 220
▁wishes 220
14 219
▁daftar 219
▁dimasukkan 219
▁embarrass 219
▁environment 219
▁inherit 219
▁masyarakat 219
▁membenci 219
▁memerintah 219
▁menghasilkan 219
▁pengantin 219
▁plea 219
▁rawak 219
▁semenjak 219
▁setup 219
come 218
nasib 218
▁berminat 218
▁grown 218
▁kabur 218
▁keymap 218
▁khusus 218
▁kyle 218
▁menggantikan 218
▁menyempurnakan 218
▁mime 218
▁musnah 218
▁oath 218
▁tiny 218
▁wipe 218
baris 217
▁400 217
▁angeles 217
▁bagai 217
▁belanja 217
▁berlindung 217
▁crown 217
▁halus 217
▁happiness 217
▁jamie 217
▁jeff 217
▁julian 217
▁lesen 217
▁memaafkan 217
▁memuat 217
▁murah 217
▁statement 217
▁tarian 217
▁tertinggi 217
▁winner 217
:// 216
craft 216
lantik 216
ndra 216
▁bersenjata 216
▁covenant 216
▁detail 216
▁dimatikan 216
▁famous 216
▁hood 216
▁jawatan 216
▁kebakaran 216
▁melawat 216
▁nikmatnikmat 216
▁register 216
▁zum 216
faat 215
simpati 215
▁andrew 215
▁berdarah 215
▁bimbit 215
▁capable 215
▁companion 215
▁component 215
▁destiny 215
▁district 215
▁employ 215
▁hostage 215
▁jersey 215
▁klien 215
▁kolam 215
▁krab 215
▁priest 215
▁satellite 215
▁wilson 215
▁apparently 214
▁assassin 214
▁bingkai 214
▁brook 214
▁chappie 214
▁courage 214
▁demand 214
▁elevator 214
▁exam 214
▁fuel 214
▁illegal 214
▁komander 214
▁lawrence 214
▁mitch 214
▁occur 214
▁professional 214
▁sarapan 214
▁segmen 214
▁thunder 214
▁transform 214
amud 213
bungkus 213
kov 213
undo 213
▁bath 213
▁berpakaian 213
▁chamber 213
▁crush 213
▁fasik 213
▁penawar 213
▁pinggang 213
▁quarter 213
▁terbit 213
hopper 212
system 212
write 212
▁claire 212
▁cpu 212
▁decree 212
▁defense 212
▁imap 212
▁international 212
▁keuntungan 212
▁mengucapkan 212
▁pelancar 212
▁penglihatan 212
▁psych 212
▁pustaka 212
▁rocket 212
▁satelit 212
▁ternyata 212
▁uniform 212
▁binasakan 211
▁disappoint 211
▁encryption 211
▁mason 211
▁muslim 211
▁patience 211
▁photograph 211
▁responsibility 211
▁uji 211
ello 210
level 210
look 210
papar 210
▁29 210
▁beredar 210
▁boston 210
▁ciri 210
▁java 210
▁juara 210
▁legal 210
▁matthew 210
▁oz 210
▁penumpang 210
▁pursu 210
▁terjun 210
▁troy 210
▁universe 210
▁biji 209
▁gunungganang 209
▁junior 209
▁memasang 209
▁misteri 209
▁palace 209
▁particular 209
▁proceed 209
▁syak 209
▁talent 209
▁weekend 209
▁yahudi 209
▁zu 209
♪ 209
rsungguhsungguh 208
▁cattle 208
▁divorce 208
▁grandpa 208
▁lainlain 208
▁mengajak 208
▁mobile 208
▁morgan 208
▁recent 208
lengkap 207
tasik 207
▁announce 207
▁closing 207
▁flame 207
▁huraian 207
▁kawal 207
▁lni 207
▁mematuhi 207
▁meneruskan 207
▁menikah 207
▁recently 207
eberapa 206
logical 206
undur 206
▁fakta 206
▁gradua 206
▁including 206
▁magnet 206
▁melebihi 206
▁mengkhianati 206
▁perihal 206
▁reset 206
▁ryu 206
▁saham 206
▁scheme 206
▁shock 206
▁suicide 206
▁terpulang 206
▁zon 206
capai 205
nganiaya 205
▁asyik 205
▁bride 205
▁celebrate 205
▁diminta 205
▁kambing 205
▁keajaiban 205
▁marya 205
▁pump 205
▁rotate 205
▁teruja 205
▁tradisi 205
▁wallace 205
laknat 204
▁$2 204
▁chicago 204
▁citizen 204
▁complain 204
▁dibayar 204
▁electric 204
▁factory 204
▁kesakitan 204
▁melepasi 204
▁mencium 204
▁mengingkari 204
▁plate 204
▁seburukburuk 204
▁sejenis 204
▁seksyen 204
▁separa 204
▁tunggal 204
gigit 203
tool 203
▁abaikan 203
▁bakat 203
▁ditinggalkan 203
▁jewel 203
▁kategori 203
▁kenangan 203
▁keperluan 203
▁merompak 203
▁partition 203
▁pengkhianat 203
▁proxy 203
▁shield 203
▁tanggungjawab 203
▁terluka 203
▁valley 203
ffff 202
hhh 202
khianat 202
▁attachment 202
▁bajingan 202
▁bodies 202
▁handsome 202
▁krismas 202
▁marshal 202
▁penutup 202
▁ronnie 202
▁semestinya 202
▁unlock 202
count 201
nyemak 201
с 201
▁bulu 201
▁cair 201
▁patty 201
▁peminat 201
▁popular 201
▁reply 201
betul 200
▁100% 200
▁artikel 200
▁caitlin 200
▁duck 200
▁emosi 200
▁jew 200
▁kacak 200
▁loyal 200
▁navigat 200
▁penembak 200
▁permanently 200
▁pria 200
▁render 200
▁reveal 200
▁reverse 200
▁sepupu 200
▁succeed 200
▁tetikus 200
▁texas 200
kurung 199
patah 199
▁assistant 199
▁berkenaan 199
▁berpegang 199
▁bohong 199
▁burden 199
▁caesar 199
▁gconf 199
▁jiran 199
▁kerabat 199
▁komponen 199
▁legenda 199
▁memenangi 199
▁menguruskan 199
▁product 199
▁technical 199
▁whip 199
▁zip 199
undang 198
▁bennet 198
▁bump 198
▁fortune 198
▁horribl 198
▁indicate 198
▁ketahui 198
▁negative 198
▁philip 198
▁useless 198
emurah 197
mighty 197
▁confess 197
▁dispute 197
▁generate 197
▁interrupt 197
▁rohit 197
▁subjek 197
▁tyler 197
▁unfortunately 197
bawah 196
▁berurusan 196
▁coward 196
▁dozen 196
▁houston 196
▁incredible 196
▁madu 196
▁march 196
▁prime 196
▁steel 196
▁tumpang 196
▁wilayah 196
ccup 195
musnah 195
▁admir 195
▁cousin 195
▁duke 195
▁kekufuran 195
▁kemarahan 195
▁menyusu 195
▁persekitaran 195
▁physical 195
▁pinggir 195
▁pour 195
▁quality 195
▁shanti 195
▁tumbuk 195
▁berpecah 194
▁cerah 194
▁clue 194
▁julia 194
▁muhammad 194
▁sentence 194
cipta 193
▁await 193
▁berhampiran 193
▁grieve 193
▁kebetulan 193
▁laser 193
▁manfaat 193
▁permohonan 193
▁pertukaran 193
▁retire 193
▁setakat 193
▁teguh 193
▁teori 193
▁wisdom 193
▁article 192
▁automatic 192
▁federal 192
▁hint 192
▁imbas 192
▁investigation 192
▁kencing 192
▁profit 192
▁recover 192
▁rough 192
▁servis 192
▁asleep 191
▁belasah 191
▁botol 191
▁chick 191
▁clark 191
▁daemon 191
▁dahsyat 191
▁dakwa 191
▁diatas 191
▁grew 191
▁hyun 191
▁lampiran 191
▁terkini 191
▁terpilih 191
pilih 190
▁aktiviti 190
▁destinasi 190
▁lulus 190
▁nuklear 190
▁ollie 190
▁passphrase 190
▁pencipta 190
▁pralihat 190
▁pregnant 190
▁sederhana 190
▁twin 190
utuskan 189
▁berpikir 189
▁brilliant 189
▁buried 189
▁emma 189
▁landasan 189
▁menaiki 189
▁menyayangi 189
▁pangkat 189
▁pasir 189
▁penyelesaian 189
▁skema 189
▁vote 189
▁{\ 189
change 188
fikir 188
▁250 188
▁cvs 188
▁knight 188
▁membosankan 188
▁mengembara 188
▁modify 188
▁naught 188
▁opinion 188
▁painting 188
▁pertunjukan 188
▁season 188
▁tersedia 188
▁bererti 187
▁bergabung 187
▁bowl 187
▁brief 187
▁expert 187
▁kekayaan 187
▁membebaskan 187
▁menghampiri 187
▁pengesan 187
▁positive 187
▁sampel 187
▁tanggalkan 187
▁unseen 187
▁vietnam 187
▁afflict 186
▁afford 186
▁diperintahkan 186
▁membahayakan 186
▁taubat 186
▁tempattempat 186
hikmat 185
value 185
▁bandu 185
▁basah 185
▁bertugas 185
▁dictionary 185
▁gugur 185
▁komunikasi 185
▁medicine 185
▁melukis 185
▁miller 185
▁rumit 185
▁salji 185
▁smooth 185
▁sulaiman 185
▁tembok 185
bagai 184
dirikan 184
▁abide 184
▁beruntung 184
▁cream 184
▁eagle 184
▁leftenan 184
▁racun 184
▁rindu 184
▁sains 184
▁shout 184
▁storage 184
▁strategi 184
▁stroke 184
screen 183
▁allknowing 183
▁jalanjalan 183
▁literal 183
▁melarang 183
▁nyanyi 183
▁pembohong 183
▁sacred 183
▁trapped 183
banding 182
tangguh 182
▁bluetooth 182
▁chocolate 182
▁coast 182
▁constant 182
▁debt 182
▁fantastic 182
▁menceritakan 182
▁mengembirakan 182
▁menyah 182
▁nonsense 182
▁perjuangan 182
▁struck 182
▁technology 182
▁tersendiri 182
▁tertulis 182
▁toilet 182
▁¶ 182
▁ajaib 181
▁clipboard 181
▁colombia 181
▁community 181
▁dikehendaki 181
▁ditempat 181
▁drill 181
▁encounter 181
▁erik 181
▁flint 181
▁linda 181
▁maintain 181
▁membantah 181
▁mukjizat 181
▁pemikiran 181
▁perisai 181
▁permaisuri 181
▁pride 181
▁reality 181
▁temporary 181
▁tuduhan 181
▁boring 180
▁conceal 180
▁diberitahu 180
▁dimakan 180
▁easier 180
▁echo 180
▁gelintar 180
▁graphic 180
▁greek 180
▁hydra 180
▁kebahagiaan 180
▁lorong 180
▁pembawa 180
▁phase 180
▁planned 180
▁ssl 180
▁ucap 180
▁conflict 179
▁expire 179
▁habit 179
▁harvey 179
▁kebelakangan 179
▁kemaskini 179
▁markah 179
▁spesi 179
▁sunny 179
▁terlupa 179
▁thread 179
▁western 179
▁zombie 179
forgiv 178
▁carefully 178
▁dipeca 178
▁grandfather 178
▁imagin 178
▁kukuh 178
▁pentadbir 178
▁penukaran 178
▁surface 178
▁taylor 178
▁terbenam 178
▁antarabangsa 177
▁eventual 177
▁julat 177
▁kegagalan 177
▁memainkan 177
▁mendekati 177
▁organisasi 177
▁penulis 177
▁urus 177
penuh 176
setidaknya 176
▁conduct 176
▁dumbledore 176
▁frodo 176
▁hiduphidup 176
▁maze 176
▁menangani 176
▁mentadbirkan 176
▁menyalin 176
▁modified 176
▁penderitaan 176
▁penghujung 176
▁shelter 176
▁slipp 176
▁stretch 176
▁suzuran 176
cord 175
sendiri 175
▁accelerator 175
▁bertaruh 175
▁council 175
▁diizinkan 175
▁dilarang 175
▁disambungkan 175
▁ganas 175
▁georgia 175
▁menuntut 175
▁nautilus 175
▁perimeter 175
▁berselisih 174
▁easily 174
▁fetch 174
▁humiliat 174
▁identity 174
▁keldai 174
▁melibatkan 174
▁pencarian 174
▁precious 174
▁reflect 174
▁swallow 174
▁utter 174
▁coach 173
▁dibatalkan 173
▁fancy 173
▁ibadat 173
▁kagum 173
▁kelabu 173
▁league 173
▁priority 173
▁subtitle 173
▁utusan 173
▁wander 173
▁winning 173
mount 172
▁berkeli 172
▁bertolak 172
▁blade 172
▁deposit 172
▁division 172
▁experiment 172
▁foreign 172
▁mengecewakan 172
▁mengendalikan 172
▁munafik 172
▁raymond 172
▁sewaktu 172
▁snatch 172
▁tuhantuhan 172
▁utf 172
▁zeus 172
bahasa 171
▁berusia 171
▁destruction 171
▁distract 171
▁laporkan 171
▁miami 171
▁raven 171
▁slade 171
▁solid 171
▁squad 171
▁tengahari 171
▁virtual 171
zalim 170
▁achieve 170
▁arabic 170
▁august 170
▁behavior 170
▁competition 170
▁erti 170
▁flowers 170
▁insist 170
▁pengembara 170
▁rupee 170
▁spark 170
▁sweat 170
▁throat 170
cpd 169
gadis 169
ó 169
▁describe 169
▁invoke 169
▁jungle 169
▁kecelakaan 169
▁masjid 169
▁memasak 169
▁meskipun 169
▁perhiasan 169
▁rgb 169
▁servant 169
▁shanghai 169
▁spear 169
▁unicode 169
^ 168
bodoh 168
▁berbaring 168
▁buahbuahan 168
▁elizabeth 168
▁gandalf 168
▁gergasi 168
▁plug 168
▁profesional 168
▁reload 168
rgh 167
scope 167
▁animasi 167
▁dihapuskan 167
▁erase 167
▁guarantee 167
▁gulagula 167
▁jenny 167
▁keyakinan 167
▁pelakon 167
▁penyiasat 167
▁pesuruh 167
▁python 167
▁query 167
▁radius 167
power 166
stencils 166
▁beribadat 166
▁binasa 166
▁bising 166
▁daryl 166
▁kalimah 166
▁lukis 166
▁memuji 166
▁menjatuhkan 166
▁menyusahkan 166
▁merge 166
▁neighbor 166
▁pemalam 166
▁perincian 166
▁permukaan 166
▁popup 166
▁recall 166
▁sertamerta 166
▁silent 166
▁teknikal 166
close 165
▁aplet 165
▁bercinta 165
▁bersenangsenang 165
▁complicated 165
▁dylan 165
▁finn 165
▁hypocrite 165
▁ketepi 165
▁ketuaketua 165
▁layout 165
▁marshall 165
▁menjejak 165
▁missile 165
▁pemeriksaan 165
▁policy 165
▁sequence 165
▁sniper 165
▁terletak 165
▁unsupported 165
▁wartawan 165
from 164
sengsara 164
▁additional 164
▁crawl 164
▁ctrl 164
▁disahkan 164
▁drone 164
▁kelemahan 164
▁kulakukan 164
▁menaruh 164
▁menempatkan 164
▁mummy 164
▁penjelasan 164
▁saudarasaudara 164
▁seketika 164
▁silence 164
▁sophie 164
▁terputus 164
▁198 163
▁bertuju 163
▁ease 163
▁effort 163
▁institu 163
▁potential 163
▁recommend 163
▁supplie 163
delete 162
jumlah 162
▁abode 162
▁belief 162
▁dipenjara 162
▁divide 162
▁mengangkat 162
▁passport 162
▁pemberontak 162
▁perisik 162
▁twist 162
▁unique 162
pengikutpengikut 161
perbuat 161
▁avenge 161
▁berputus 161
▁bersinar 161
▁brazil 161
▁busuk 161
▁dihukum 161
▁dimuatkan 161
▁downstairs 161
▁familiar 161
▁kualiti 161
▁luput 161
▁membatalkan 161
▁pelari 161
▁perbandingan 161
▁petugas 161
▁terserah 161
▁zakar 161
▁bersara 160
▁bonus 160
▁borrow 160
▁derhaka 160
▁dikurniakan 160
▁faithful 160
▁isaac 160
▁jaminan 160
▁menyalahkan 160
▁mewarisi 160
▁negatif 160
▁nightmare 160
▁properly 160
▁sandwich 160
▁shark 160
agn 159
▁ditolak 159
▁duplicate 159
▁fifty 159
▁friday 159
▁mailbox 159
▁menginginkan 159
▁mumbai 159
▁nurse 159
▁pengawasan 159
▁publish 159
▁savitar 159
▁semacam 159
▁similar 159
▁torture 159
▁vault 159
corp 158
▁afghanistan 158
▁champagne 158
▁declare 158
▁dingin 158
▁disease 158
▁falcone 158
▁gym 158
▁kediaman 158
▁kehadiran 158
▁menjijikkan 158
▁meyakinkan 158
▁mmmhmm 158
▁nancy 158
▁pearl 158
▁practic 158
▁promot 158
▁stephen 158
▁ugly 158
▁warrant 158
break 157
keyboard 157
rtengkar 157
▁advantage 157
▁branch 157
▁disobey 157
▁hollywood 157
▁kadangkala 157
▁kegunaan 157
▁letupkan 157
▁monday 157
▁platform 157
▁sebegitu 157
▁solomon 157
▁tandabuku 157
lombong 156
saiz 156
▁antaramuka 156
▁apologi 156
▁brenda 156
▁depth 156
▁derma 156
▁dibina 156
▁diselesaikan 156
▁enterprise 156
▁keredaan 156
▁kitabkitab 156
▁mengancam 156
▁merendah 156
▁penonton 156
▁piano 156
▁upgrade 156
program 155
sedekah 155
▁gementar 155
▁hermione 155
▁inspektor 155
▁ketinggalan 155
▁ketinggian 155
▁merokok 155
▁opponent 155
▁pepper 155
▁reserve 155
▁temujanji 155
▁terbalik 155
lampau 154
▁aryan 154
▁becky 154
▁betina 154
▁bhai 154
▁cadangkan 154
▁falsehood 154
▁hidangan 154
▁instruction 154
▁kowalski 154
▁krim 154
▁mempengaruhi 154
▁ordinary 154
▁pejuang 154
▁pelaku 154
▁poket 154
▁stink 154
▁zakat 154
▁activity 153
▁actual 153
▁berkhidmat 153
▁berlainan 153
▁catatan 153
▁dinosaur 153
▁funeral 153
▁generator 153
▁hitungan 153
▁identify 153
▁mencoba 153
▁pengorbanan 153
▁perc 153
▁specifie 153
gelar 152
location 152
maharaja 152
passionate 152
▁berbau 152
▁bukit 152
▁dihidupkan 152
▁dipindahkan 152
▁disgrace 152
▁juruterbang 152
▁keparat 152
▁menyambung 152
▁pengikut 152
▁sabtu 152
surance 151
▁albania 151
▁electro 151
▁menyamar 151
▁organization 151
▁pembangun 151
▁pintas 151
▁primary 151
▁proksi 151
damaian 150
menerus 150
yearold 150
▁aliran 150
▁berlagak 150
▁hinata 150
▁indeks 150
▁kebencian 150
▁kidnap 150
▁koleksi 150
▁memecahkan 150
▁mengurniakan 150
▁menyiasat 150
▁moscow 150
▁muntah 150
▁pengaruh 150
▁rompakan 150
▁colour 149
▁delhi 149
▁gerbang 149
▁kidnapped 149
▁lakilaki 149
▁lawful 149
▁mengandung 149
▁mengunci 149
▁merakam 149
▁persediaan 149
▁rancang 149
▁recipient 149
▁seragam 149
▁studio 149
▁sudden 149
▁verify 149
▁vigilante 149
▁wakil 149
emukakan 148
persekutuan 148
textattr 148
▁average 148
▁dibinasakan 148
▁didapati 148
▁disitu 148
▁iraq 148
▁keganasan 148
▁kehinaan 148
▁kernel 148
▁kesedihan 148
▁material 148
▁mencukupi 148
▁nuclear 148
▁persahabatan 148
▁refresh 148
▁scientist 148
▁selebihnya 148
▁sukarela 148
▁tengahtengah 148
default 147
hidup 147
robbie 147
style 147
uff 147
▁adventure 147
▁bersemangat 147
▁circus 147
▁comfortable 147
▁conquer 147
▁detroit 147
▁forecast 147
▁incident 147
▁invisible 147
▁invitation 147
▁jealous 147
▁kemahiran 147
▁latarbelakang 147
▁mahkota 147
▁rencana 147
▁scratch 147
▁sensor 147
▁thirty 147
▁valentine 147
dagangan 146
▁advise 146
▁anchor 146
▁berpandu 146
▁bintangbintang 146
▁burger 146
▁facility 146
▁grey 146
▁kesayangan 146
▁laptop 146
▁memerangi 146
▁penimbal 146
▁resolve 146
▁sejujurnya 146
▁sparrow 146
▁tanggung 146
▁tertinggal 146
phy 145
р 145
▁astaga 145
▁copyright 145
▁delicious 145
▁dicuri 145
▁ellie 145
▁gelombang 145
▁harrison 145
▁melancarkan 145
▁menggoda 145
▁positif 145
▁produk 145
▁sifar 145
▁stein 145
▁summary 145
laluan 144
paderi 144
ungkapkan 144
▁avail 144
▁berbaloi 144
▁category 144
▁clever 144
▁collapse 144
▁ditakrif 144
▁journal 144
▁mewah 144
▁penceroboh 144
▁remembrance 144
jelma 143
▁alias 143
▁comfort 143
▁google 143
▁kajian 143
▁kelaparan 143
▁melatih 143
▁pembolehubah 143
▁sneak 143
▁solution 143
▁tokyo 143
▁turki 143
▁universiti 143
▁violence 143
hijrah 142
▁berbalik 142
▁berpuas 142
▁bleeding 142
▁cemburu 142
▁emperor 142
▁football 142
▁geeta 142
▁keampunan 142
▁kebijaksanaan 142
▁mortal 142
▁spanish 142
▁troops 142
▁cease 141
▁consequence 141
▁dijalankan 141
▁ditakdirkan 141
▁emmet 141
▁external 141
▁gracious 141
▁hodoh 141
▁interpol 141
▁kebinasaan 141
▁kepentingan 141
▁kesihatan 141
▁menamakan 141
▁nathan 141
▁perahu 141
▁pussy 141
▁retreat 141
▁sensitif 141
▁stress 141
▁tergesagesa 141
hulurkan 140
plikasi 140
▁arrogant 140
▁bryan 140
▁disturb 140
▁hollow 140
▁jumaat 140
▁kekacauan 140
▁knot 140
▁lazat 140
▁matrix 140
▁menetap 140
▁neighborhood 140
▁obses 140
▁perlumbaan 140
▁slaughter 140
▁xiang 140
seratus 139
▁arriv 139
▁consul 139
▁diaktifkan 139
▁dibangkitkan 139
▁florida 139
▁martial 139
▁matematik 139
▁memperkenalkan 139
▁menimbul 139
▁pembedahan 139
▁resolusi 139
▁thumbnail 139
▁unbelievabl 139
▁animation 138
▁ashley 138
▁dihormati 138
▁fashion 138
▁forbid 138
▁holmes 138
▁menjulang 138
▁penalty 138
▁pengedar 138
▁pepijat 138
▁stomach 138
▁tawarkan 138
group 137
▁beloved 137
▁desperate 137
▁explode 137
▁hakikat 137
▁kecerunan 137
▁koordinat 137
▁merawat 137
▁pembalasan 137
▁pernikahan 137
▁replied 137
▁sebalik 137
▁structure 137
▁survivor 137
▁traitor 137
pengguna 136
і 136
▁blend 136
▁ditugaskan 136
▁exceed 136
▁harimau 136
▁kecederaan 136
▁keliru 136
▁kredit 136
▁lewis 136
▁menanti 136
▁nabinabi 136
▁pemberitahuan 136
▁pendengaran 136
▁sepanyol 136
▁skynet 136
▁supply 136
▁violent 136
▁explosion 135
▁glenn 135
▁kendali 135
▁obvious 135
▁passenger 135
▁pembersih 135
▁prosedur 135
▁september 135
▁strive 135
▁tersenyum 135
▁whisper 135
course 134
frasalaluan 134
klik 134
limpah 134
▁befall 134
▁dynami 134
▁entrance 134
▁immortal 134
▁kathy 134
▁menjalani 134
▁pelatih 134
▁penamat 134
▁perhubungan 134
▁ramalan 134
▁shankar 134
▁terheba 134
▁tumpuan 134
` 133
nderhaka 133
normal 133
number 133
pertaruhkan 133
▁arnab 133
▁berlumba 133
▁exercise 133
▁gstreamer 133
▁instant 133
▁kesemuanya 133
▁penunjuk 133
▁proclaim 133
▁sarkas 133
▁tonton 133
▁{1} 133
hubungkan 132
senarai 132
tembak 132
▁adopt 132
▁baharu 132
▁berpisah 132
▁dihentikan 132
▁encrypted 132
▁hagrid 132
▁interpret 132
▁menyambut 132
▁penampilan 132
▁penyelidikan 132
▁schema 132
▁social 132
▁terapung 132
▁vacation 132
hormat 131
khayal 131
▁attorney 131
▁linux 131
▁menembus 131
▁merindukan 131
▁mewakili 131
▁opposite 131
▁pledge 131
▁tattoo 131
▁thirst 131
▁crowley 130
▁diselamatkan 130
▁disgusting 130
▁fischer 130
▁kemuliaan 130
▁kilometer 130
▁klasik 130
▁relevan 130
▁ritual 130
▁samseng 130
▁seberang 130
▁semesta 130
▁smash 130
▁surveill 130
▁tuesday 130
▁viktor 130
alualukan 129
bicaraan 129
genericname 129
jurutera 129
keadaan 129
▁almari 129
▁anggur 129
▁atlantic 129
▁binding 129
▁frankenstein 129
▁helmet 129
▁hyper 129
▁jennifer 129
▁mempersekutukan 129
▁mengabaikan 129
▁merbahaya 129
▁navy 129
▁nyalakan 129
▁penyunting 129
▁persetujuan 129
▁pgp 129
▁preparing 129
▁spesifik 129
▁spoil 129
▁temanteman 129
▁translate 129
▁tumpukan 129
position 128
source 128
▁berbilang 128
▁dimusnahkan 128
▁exciting 128
▁foreground 128
▁governor 128
▁helicopter 128
▁instance 128
▁kemurkaan 128
▁keseronokan 128
▁kumpulkan 128
▁lonely 128
▁membaiki 128
▁novak 128
▁november 128
▁persamaan 128
▁sambutan 128
▁sekurang 128
▁soviet 128
▁sustenance 128
▁tooltip 128
▁trunk 128
skop 127
tindih 127
▁angkuh 127
▁diikuti 127
▁diwahyukan 127
▁hawk 127
▁kebajikan 127
▁mengasihi 127
▁pemisah 127
▁saturday 127
▁sensitive 127
▁suasana 127
▁sultan 127
▁supreme 127
▁volunteer 127
jelajah 126
province 126
sphere 126
▁atlanta 126
▁compose 126
▁harbor 126
▁kebiasaan 126
▁kerangka 126
▁langgar 126
▁pembela 126
▁plankton 126
▁quote 126
▁repair 126
▁singgah 126
▁trevor 126
▁wrath 126
wajibkan 125
www 125
▁berkelakuan 125
▁console 125
▁ditukar 125
▁flood 125
▁kepulau 125
▁ngeri 125
▁pengenalan 125
▁ppd 125
▁serpihan 125
▁swift 125
▁syukurlah 125
▁tersesat 125
bound 124
second 124
▁ahliahli 124
▁berniat 124
▁diletakkan 124
▁disampaikan 124
▁ibubapa 124
▁omong 124
▁pembaca 124
▁reduce 124
▁struggle 124
▁teknik 124
▁tercedera 124
▁vcard 124
▁villain 124
▁cdrom 123
▁cruel 123
▁escort 123
▁expensive 123
▁kewangan 123
▁membelanjakan 123
▁menjauhkan 123
▁shrink 123
▁adult 122
▁bishop 122
▁dibakar 122
▁mengadap 122
▁merry 122
▁mmhm 122
▁penyangak 122
▁roket 122
▁vincent 122
▁ambulance 121
▁celebrat 121
▁circuit 121
▁confident 121
▁custody 121
▁dikawal 121
▁empire 121
▁insult 121
▁kewujudan 121
▁prometheus 121
▁spongebob 121
▁testify 121
▁wreck 121
▁zhang 121
cenderung 120
janjikan 120
lampirkan 120
mahir 120
mesej 120
uspicious 120
н 120
▁berdekatan 120
▁evacuate 120
▁matlamat 120
▁medusa 120
▁mengekori 120
▁menggali 120
▁merenung 120
▁pathetic 120
▁rhode 120
▁robbery 120
▁temperature 120
▁adrian 119
▁buddha 119
▁consume 119
▁kumohon 119
▁muscle 119
▁skrol 119
▁tertangkap 119
hampirhampir 118
jadual 118
terjaga 118
video 118
▁broadcast 118
▁casino 118
▁execution 118
▁memeluk 118
▁pemegang 118
▁remaja 118
▁republic 118
▁sorrow 118
▁ubahsuai 118
▁upacara 118
▁berbakat 117
▁bercampur 117
▁dikalahkan 117
▁kemajuan 117
▁keraguan 117
▁labahlabah 117
▁occasion 117
▁pengangkutan 117
▁pengeluar 117
▁prompt 117
▁watson 117
amalkan 116
▁alcohol 116
▁approve 116
▁huruhara 116
▁mafia 116
▁mengakses 116
▁nanny 116
▁pendaratan 116
▁agama 115
▁armenia 115
▁beroperasi 115
▁gorge 115
▁lorraine 115
▁memperkatakan 115
▁operate 115
▁propose 115
▁teliti 115
▁vijay 115
▁bersifat 114
▁dilindungi 114
▁dongeng 114
▁eugene 114
▁gantung 114
▁khidmat 114
▁mengenakan 114
▁procedure 114
▁sesawang 114
ximize 113
▁algorithm 113
▁cukai 113
▁disentuh 113
▁festival 113
▁kesukaan 113
▁kurungan 113
▁possibilit 113
▁shishio 113
▁swimming 113
ü 112
к 112
▁bakhil 112
▁egypt 112
▁equipment 112
▁gravity 112
▁menunjuk 112
▁scofield 112
▁vodka 112
▁hiburan 111
▁kegembiraan 111
▁mengusir 111
etuai 110
▁berarti 110
▁difahami 110
▁lynch 110
▁absolute 109
▁britain 109
▁kokain 109
▁terlewat 109
mereka 108
ا 108
▁biskut 108
▁compromise 108
▁diubahsuai 108
▁lencana 108
▁mengorbankan 108
▁pembeli 108
▁penyimpanan 108
▁syntax 108
▁teringat 108
▁johann 107
▁natalie 107
▁sinners 107
▁valuable 107
▁mendakwa 106
▁zuriat 106
▁corleone 105
▁mendorong 105
▁geometri 104
▁kesetiaan 104
▁menandatangani 104
▁somethin 104
▁terperinci 104
▁ultimate 104
kompil 103
▁xiao 103
▁coulson 102
▁fabricate 102
▁fountain 101
worthy 100
▁counsel 100
▁crane 100
▁terpisah 99
ã 98
▁explanation 98
▁bayangbayang 97
▁survival 97
8859 96
▁associat 96
â 95
▁fletch 94
ñ 93
μ 90
© 88
ѕ 87
¿ 84
~ 82
ν 79
sungguhsungguh 75
à 75
× 74
è 73
τ 73
в 73
ј 73
м 70
υ 69
ö 67
ˊ 67
ر 67
° 65
ú 60
¡ 59
ه 56
η 54
ä 52
ा 51
и 50
د 50
т 49
ο 47
у 47
å 46
л 46
ô 43
ç 41
α 41
ن 41
я 39
ب 39
£ 38
ø 38
∶ 37
ь 36
♬ 36
± 35
æ 35
• 35
ش 33
г 32
ā 31
б 31
م 30
þ 29
ε 29
र 29
ز 28
ï 27
д 27
و 27
β 26
ی 26
ل 25
ल 24
‘ 24
 23
õ 23
ý 23
î 22
ş 22
п 22
κ 21
ग 21
न 21
ρ 20
س 19
द 19
û 18
š 18
் 18
া 17
­ 15
ч 15
– 15
¶ 14
ū 14
€ 14
х 13
آ 13
ह 13
ी 13
ë 12
ð 12
̊ 12
ζ 12
ي 12
→ 12
♫ 12
̈ 11
ы 11
ब 11
ц 10
ं 10
भ 10
म 10
व 10
― 10
州 10
ì 9
č 9
ī 9
ž 9
з 9
ح 9
ق 9
گ 9
े 9
ச 9
ி 9
λ 8
ج 8
ك 8
् 8
ক 8
ট 8
্ 8
ப 8
ர 8
ത 8
ന 8
ര 8
ു 8
南 8
¤ 7
ê 7
ά 7
গ 7
র 7
த 7
长 7
门 7
¦ 6
® 6
ß 6
ă 6
θ 6
σ 6
χ 6
ύ 6
ж 6
й 6
ة 6
ت 6
خ 6
غ 6
ई 6
ण 6
श 6
ू 6
ত 6
ল 6
ਰ 6
ગ 6
ન 6
ભ 6
ર 6
વ 6
ા 6
ବ 6
ன 6
ள 6
ỳ 6
庆 6
重 6
ı 5
ί 5
э 5
आ 5
ऊ 5
ख 5
ि 5
ਿ 5
੍ 5
ੰ 5
ு 5
ก 5
ง 5
ท 5
พ 5
ร 5
ฯ 5
ุ 5
เ 5
乌 5
宁 5
昆 5
明 5
木 5
澳 5
雄 5
高 5
鲁 5
齐 5
& 4
 4
 4
§ 4
¬ 4
» 4
œ 4
ţ 4
π 4
ط 4
इ 4
च 4
ड 4
प 4
स 4
ु 4
ो 4
চ 4
ম 4
ം 4
പ 4
വ 4
ി 4
് 4
ව 4
ྲྀ 4
“ 4
∆ 4
原 4
哈 4
太 4
尔 4
春 4
杭 4
武 4
汉 4
沈 4
滨 4
阳 4
ł 3
ń 3
ŏ 3
ươ 3
̄ 3
ι 3
ع 3
ف 3
چ 3
औ 3
আ 3
ਅ 3
ਤ 3
ਮ 3
ਸ 3
ନ 3
ଭ 3
ର 3
ଶ 3
ୁ 3
େ 3
୍ 3
ா 3
ெ 3
ை 3
⁄ 3
∕ 3
上 3
合 3
安 3
沙 3
海 3
眉 3
肥 3
臺北 3
西 3
 2
 2
 2
¥ 2
« 2
ò 2
đ 2
ē 2
ė 2
ğ 2
ň 2
ť 2
έ 2
ή 2
ئ 2
ढ़ 2
ढ़ਚ 2
ঢ 2
ਡੀਗੜ 2
ਦ 2
ਨਵੀਂ 2
ਹ 2
ੱਲੀ 2
கோயம 2
ூ 2
ආ 2
බ 2
ය 2
ා 2
ි 2
ේ 2
ෝ 2
ứ 2
ữ 2
‒ 2
‚ 2
− 2
♩ 2
么 2
京 2
仔 2
兰 2
冰 2
加 2
厦 2
呼 2
和 2
士 2
天 2
威 2
忌 2
成都 2
日 2
月 2
氹 2
津 2
浩 2
特 2
福 2
오산 2
 1
 1
 1
¢ 1
÷ 1
ę 1
ĭ 1
İ 1
ō 1
ř 1
ś 1
ŧ 1
ŭ 1
̀ 1
̧ 1
γ 1
φ 1
، 1
أ 1
ٌ 1
ँ 1
ः 1
क 1
ज 1
ठ 1
डौ 1
ầ 1
‭ 1
⇒ 1
│ 1
☺ 1
埔 1
巿 1
广 1
枚 1
济 1
脛 1
芒 1
茅 1
郑 1
頂 1
madeupword0000 0
madeupword0001 0
madeupword0002 0
madeupword0003 0
